  t
h e
  a
  s
  w
n d
 t he
e d
  b
 t o
 a nd
  h
  f
i n
  T
 w a
r e
i t
o u
  l
  d
  c
  p
a y
  m
e r
 wa s
o m
 T he
  he
i s
a r
  n
i m
o n
 s a
i d
l l
 h a
  g
a t
in g
  S
o t
e n
a n
l e
o r
i r
a m
e t
  H
  it
 t h
i g
 The y
  in
i l
 p l
 H e
  "
o w
v er
r i
u t
 b e
  u
 sa id
 pl ay
it h
 d ay
p p
 w ith
O n
  y
  o
o o
  r
k ed
c e
  I
 he r
l d
 S he
 T im
 h is
 s t
k e
  e
 b ig
n t
c k
 y ou
ver y
s t
v e
e nd
u n
  on
 ha pp
ri end
 f riend
a ll
il y
 the y
  L
 w e
 ha d
 u p
 n ot
 wa nt
he r
 l i
 o f
a d
  B
it t
s e
 d o
 happ y
  M
  very
e s
en t
 th at
 sa w
' s
On e
ou ld
 f or
 s h
 m om
itt le
 s o
 l ittle
 s he
im e
. "
 n e
 n am
 t ime
c h
ou nd
  k
 the re
 nam ed
 s m
 we re
 L ily
 b o
 want ed
 friend s
 b ut
ou t
T he
! "
v ed
h t
ir d
 T om
e l
 b ird
a ke
a l
 a n
om e
 I t
 to o
u g
id e
 w ent
 w h
On ce
 he l
u e
  is
 a ll
 hel p
 l oo
 l o
r y
 up on
  A
t er
o re
 f un
i nd
i ll
g et
am e
 to y
 a s
  j
 d id
 a t
r a
get her
u r
  re
 s e
 to gether
a ck
 c at
 t re
l y
oo d
i c
t ed
 do g
 c ould
 c an
 the ir
ar k
ar d
e c
 b all
 play ed
 h im
ir l
w ay
? "
 g o
 g irl
m y
 r o
he d
a in
 a re
  out
' t
 l e
 k n
he n
a x
 f r
 the m
u m
 sa d
 tre e
u l
 bo y
 ha ve
 c l
ot her
 m an
 lo ved
ou g
 f ound
 loo ked
 s p
 st ar
 S ue
on e
h ing
 M ax
 b ack
 s c
ow n
 li ke
a re
 m e
f ul
s ide
 be c
 p ark
ig ht
 c ar
on g
el t
  One
 li ked
 w ould
o p
r ound
 l a
 f a
 m ake
 f elt
Y ou
 se e
  W
om et
 B ut
e ll
 n o
ou se
 as ked
 B en
 ne w
 star ted
a g
i ce
 c ame
ar ed
 a l
 S am
oug ht
  other
il ed
 s omet
 a g
 g ood
 sm all
s s
 s ay
 b r
 sm iled
o b
ad e
ing s
ri ed
p ot
 e x
 a way
t y
 f ind
 w or
 somet hing
 p ut
 wh at
 m ade
 th ought
en ed
 c o
 h ome
 fr om
 play ing
i a
 wa l
oo k
 e very
 m u
 r an
a ch
 S pot
  J
ar n
  F
u c
i le
 s ome
i e
 ag ain
d d
 d own
n y
a ve
 h ouse
u re
k ing
 la ug
 f l
 sc ared
e p
 too k
 p r
i ck
a b
i f
 bo x
  You
 le arn
re t
 w ill
 a round
 th ings
 toy s
is h
 b l
 m y
ou d
u ck
 s un
 you r
 the n
 w hen
 li ved
 f e
, "
 s w
pp ed
a s
 c h
 a b
an k
u s
ot h
T im
a p
 g et
 M ia
 l ot
um p
T h
is t
it ed
 kn ow
 say s
u st
 g ot
 t ried
uc y
 wh o
 kn e
nd er
 man y
 in t
 p ret
 ab out
L ily
 an y
is e
  D
 d ec
i ve
 p ic
 r ed
q u
 m ore
 kne w
a ce
ou s
 h ug
 p o
all y
 c are
  v
ur p
 wa ter
 be st
a u
 ex c
 bec ame
 learn ed
f ter
� �
way s
 o p
 g re
au se
 L ucy
 B ob
 out side
 al ways
 loo k
 laug hed
 u n
 sh ow
 h o
 M om
 dec id
an t
 b oth
 e at
 S o
 decid ed
 bec ause
 ro om
 int o
er s
 A nd
f e
it e
 j ump
u dd
n n
 p e
  ke
The y
 th is
 exc ited
 d ad
 on e
 fa st
 r un
 n ice
  E
Y es
 fe el
urp r
 l ong
T om
 s urpr
 t r
 to ld
ou r
 a m
 s k
in y
in k
u ll
 pret ty
 in side
 s l
 m o
 s or
 g ra
nn a
 t ake
W h
 ro ck
 e ach
le w
 mu ch
 g ave
 st r
g ed
 h ow
 ne ed
 th an
B ut
v en
o g
  or
im al
 an imal
  C
 to w
ar a
 u nder
 sor ry
 l et
 o ld
g e
 be ar
es s
is ed
ur t
r o
 cl o
 f ish
 wal ked
a st
a se
 ha nd
a nd
ur n
 c le
f t
 fl ow
 j ust
 k ind
 did n
he re
 f ood
 happ ened
 H is
 wa t
p l
 W e
f f
r om
  ide
c hed
 t ry
 h ig
 t e
 f i
 l ist
in e
 sk y
 s n
 b et
 animal s
 ide a
 ne ar
v ing
 it s
 t w
 u s
 b ug
g ry
 he ard
 bet ter
ab le
p ec
  en
 sh are
 T h
at e
  if
 st or
 A my
e x
Th ank
M om
 care ful
 d an
 f ly
 c om
i al
 f lew
l f
 sp ec
 spec ial
 lot s
m ore
 any more
 f o
i on
 ne ver
 b y
re am
 d on
 sh iny
 g r
 e ven
 e nd
 w ind
 lo ve

 

 t al
 f ore
 The n
a k
 m ag
or t
b b
udd en
r m
 b u
im b
 A nna
 c ake
 co l
 cle an
 t urn
 b ook
 o ver
 cl imb
 h ard
 E very
 b ad
udden ly
pec ted
op le
L et
 surpr ised
 hig h
 h urt
 c ome
 f am
 a fter
' m
 wa y
 pic ked
 do or
 pr oud
 g l
b er
ex pected
 un expected
 c u
 g round
 sa fe
ad y
 c he
 op ened
 l oud
  im
ard en
 g arden
 than ked
 g ive
 col or
A s
 F rom
 hug ged
 pe ople
 st ill
a il
il d
 e ver
 bl ue
N o
 c all
 f ar
i z
 W hen
  K
um my
 H er
 of f
 mag ic
oug h
 S ara
oo l
  qu
le s
i p
 jump ed
t ure
 wal k
 k id
 sm ile
 fam ily
k ay
u ff
 p ar
ag e
 sh ould
 st ay
 I n
he s
 gre at
 fore st
e m
 s qu
 st o
 n ow
a ut
 pl ace
 str ong
n ing
 b ra
  P
o on
 u nt
itt y
c t
 be aut
un ny
le ase
d y
x t
 pic ture
an e
 st ick
 ne xt
a king
b e
 unt il
re l
 stor y
 happ ily
 kid s
 br o
o y
 r ain
i ful
 clo s
 beaut iful
 a pp
 im p
 list en
 wh ile
 fr og
 show ed
 t ra
 tow n
 help ed
 every one
i es
p t
t h
re e
I t
 be ing
 m et
 m or
N ow
re ss
 g ame
 tr uck
 ha t
 w o
 call ed
 sto pped
 a d
 re m
 d ra
uff y
b y
 m ouse
C an
 c ry
H e
W hen
 so ft
 y ummy
 op en
 bo at
 b ed
 wat ch
 ke ep
 an gry
 L et
 W h
 do ll
v ent
g er
ar y
b it
 flow ers
ab bit
 S ally
s o
 bra ve
is hed
dd ed
 at e
g an
 al so
 could n
  R
 K itty
 le ave
 gre en
 d e
f ore
 lo st
 wa rm
 sl ide
 r abbit
 f ell
 no ise
is s
 w here
ir st
ir rel
 fa ce
Wh at
se lf
b le
 squ irrel
o ck
 tw o
 he ar
l uffy
 so on
ill y
a z
 ho le
ir ed
m a
 p us
H i
ow l
le ep
 p ain
 be fore
 hand s
 sa t
 no dded
B en
L ook
� �
The n
 ke pt
 ex pl
� �
e ar
Th at
 p a
 f in
ay be
 e y
 b re
d ay
 bird s
 u se
 c ook
 cat ch
 ha ving
 b unny
 fun ny
 go ing
an ge
 F luffy
t hing
  Now
 ha s
 t ired
 st ore
 th ink
 loo king
 w r
 sun ny
 po nd
 s ound
 fi x
 th r
  our
 y ell
 us ed
u ch
 s ing
 me an
 wor k
 be h
W e
 c ra
 mom my
 C an
it c
 other s
j oy
t ing
 b us
 ey es
 wa it
 he ad
 j o
em ber
a ug
 as k
aug ht
 t ri
re w
 p ull
itc hen
 k itchen
a ir
 v o
 d r
 tal k
 fa v
ell o
H ello
 fl o
 J ack
 f irst
u it
 en joy
 d if
 J o
 r ight
  G
 h ill
 r ace
 flow er
n g
 s leep
 par ty
or n
i ous
z y
 m ess
 br ight
 imp ort
 rem ember
l ed
a c
 d uck
 D o
 p ie
 sa nd
 re al
 ad vent
im es
 b ag
 c on
 cu ri
 co ld
 mor al
 h op
 d ir
ll ow
at h
 F in
  “
 import ant
 o kay
re ed
ou nt
 m aking
 sh ared
h n
 curi ous
  z
 be gan
 m on
 h id
 t all
A t
 surpr ise
 y ard
 cl a
e et
 he re
 fav or
q ue
ap er
 gra ss
 favor ite
D on
 re st
 th ing
ll y
 wor ked
W ow
 d is
ec t
  ice
st er
 fo llow
 h ot
 ag reed
  own
 n ight
 d ress
 to p
 sh o
 be l
 c ut
 wat ched
 beh ind
 Th is
 wal king
 tre es
 p ick
 vo ice
 bl ock
 st op
  ri
 h un
is y
 d ark
 t able
 D ad
 r u
 wor ry
 t ell
i ed
 mo ve
 car s
 color s
 dra w
A fter
 s ong
 flo or
 turn ed
 leave s
fe re
 p lease
 for g
 dif fere
ar ing
M ax
 t ail
 fi re
� �
 sh out
 do es
 re ad
Wh y
c o
 need ed
A nna
 far m
 advent ure
 M r
i ke
 S uddenly
ig n
 p aper
 clos er
er ed
b o
 feel ing
S ue
 c ried
 d el
 laug h
 li on
 hun gry
 differe nt
 sw eet
 t ast
 w et
 ro ll
 sw ing
 f ull
a ched
 Bob o
 Th at
 climb ed
 yell ow
 A s
 friend ly
 dan c
 w ood
 dan ce
 pie ce
o om
 l ady
k en
 pl an
 c r
 re ady
at er
 but ter
 bro ken
 Tim my
S am
 pr in
 to uch
by e
 run ning
w here
 p er
 wo nder
 a nt
i ent
 l ight
S he
 sw im
c ked
 pr om
 g one
 on ly
 list ened
 ha ir
 clo se
pp y
 ho ld
 pret end
 an other
 gl ad
in s
S o
 re ached
nd ma
bb ed
 fr uit
 block s
s h
 help ing
 se es
S uddenly
il a
 J ane
 c ool
 sl ow
 sm ell
one y
ab y
 re pl
 be en
S ara
 d ri
a f
 am az
at her
 st uck
 A ll
 good bye
 wa ll
 a c
 st e
 s it
 l ess
  O
 Every one
 p u
ic ed
a v
 m ight
 a r
 mu st
 sn ow
 c ream
a isy
 qu ick
 pus hed
 nam e
 mom ent
 ball oon
 b it
 d in
 com ing
 w ished
 fa ir
 wind ow
 look s
 wa g
M ia
 under st
 he ld
r ed
 try ing
 do ing
 expl ore
 d one
 cl oud
 b ar
 b aby
ic y
 w in
 ch ild
 d ream
 f ight
am es
 h ide
 per f
 dir ty
 bu y
 tra in
 gr ow
 th ank
 app le
iz ed
 d ro
 butter f
 thr ough
 wh y
 le ft
 book s
am p
' re
 re ach
 br other
 f all
ot t
I n
 s ure
 m at
 cla pped
 t iny
 p ink
 c ount
 sc ary
el y
 shout ed
 repl ied
 th ree
 a ir
i x
udd y
ke y
O kay
ie ld
as h
and y
 pl ant
 la nd
 w ise
 bu ild
 somet imes
 se en
 sp l
 cu p
at ion
 b lew
d er
 wood s
p e
 m ar
out h
 pull ed
 jo in
 p ot
 p en
 big ger
ar t
 pain t
 m outh
 wa ited
 stay ed
 remember ed
 enjoy ed
 quick ly
 picture s
 less on
 wa ved
 A fter
 gra bbed
 Mom my
 color ful
ro om
 br an
ow er
 al one
  ve
  owl
m an
 g ames
 The re
 tre at
 any thing
 f ill
 con t
as k
ou p
d e
 sp ot
av y
 ne st
J o
 c ast
 ch air
d s
c le
 j ob
Th is
O h
 c re
 j e
 not iced
 t ight
 m iss
 s et
 g ent
as ure
p h
 butterf ly
 b ike
ri es
 turn s
l c
 b ott
 D aisy
 ho pped
r ow
 B uddy
uck y
 wor ld
 p at
 bro ke
 se a
 com p
 m ix
 cl ot
 a rm
 y ear
 like s
 clot hes
 g if
ap e
 th rew
 him self
 mu s
 tow er
 he avy
 sw am
H er
t on
 po l
 bre ak
 every where
 be e
 follow ed
 Wh at
 make s
 bl ack
 ke y
B ob
D o
 w on
 del ic
L ucy
" .
S pot
 wr ong
n er
le ss
 wh ite
 danc ed
 n ap
 cast le
i et
ct or
ce ss
 r ound
th y
 forg ot
u ed
o lly
 j u
 v is
 qu iet
or m
 de ep
 st u
 we ar
 b or
 Jo hn
 mon ster
e e
ull y
 mus ic
 underst and
 re l
 r ide
 br ought
z z
 want s
 h it
 d ry
o s
are nt
f ully
  que
 Sara h
ve s
 le af
 m um
is ter
c y
re n
ou n
 p arent
 fo x
 tal ked
 fast er
 s ign
F rom
ro ss
 e m
 le g
 sm art
an ce
 se c
r ot
 rock s
 re s
 sh aring
 In side
 g i
 wor ried
 T o
 vis it
 bl ank
 fin ished
t s
 we ll
 happ en
 s ide
 cook ies
 sec ret
ard s
 k ing
 din ner
 some one
 po in
 fly ing
 blank et
 re ally
M aybe
 s illy
 b owl
 cont in
 E m
itt en
en ce
 e le
 but ton
 M aybe
 every thing
 s ister
an g
 sp r
 L ila
Jo hn
 p ig
 e l
e y
 smile s
 j ar
 f ield
 to day
 So on
 g u
 perf ect
 or ange
 el se
 p udd
 w ish
 child ren
 mu d
 f ree
 care fully
 p ast
 A t
im i
H is
at ed
F in
 e ar
 dan ger
 cry ing
 be ach
Wh ile
 gra ndma
 we lc
ed dy
 sh in
 sa ng
z e
 fill ed
 contin ued
 eat ing
 prom ised
 bran ch
se s
 ri ver
 br own
e ad
itt ing
 dr ink
J ust
 roll ed
 real ized
 sn ack
i pp
 p urp
 b ite
st ead
 sn ake
 thr ow
 l on
 clos ed
 lon ely
 piece s
bo ard
A my
 p et
 cra b
 B illy
 laug hing
 ask s
 y es
 s oup
 purp le
 c ow
ch ool
 f ur
 fair y
Mom my
on s
 sho es
is es
 run s
 b ath
 s chool
 app les
ck et
 mon key
g y
 at t
 wor ds
 B l
 parent s
us ed
 str ange
 gif t
 bar ked
 amaz ing
 mor ning
 C h
 wag ged
 with out
i ver
 mo ved
 s itting
 ro ad
f ish
 bott le
. ”
 sa il
 s u
 b oun
i re
 w he
 en ough
 m ad
as ed
or d
a ss
 c andy
 che e
 J en
i ch
  -
 h or
ve l
 welc ome
 let ter
 danger ous
 get ting
f ort
 c e
 dra g
 do ctor
 M imi
un ch
 tre asure
e my
 wh ist
 co ll
a le
 li ving
 l ake
  Z
un a
 sm o
 pa ss
 m oney
ig h
 think s
 p h
ar m
 bel ie
 G ra
 cre at
! ”
 sh op
us h
 Jo e
 p ill
 co at
i ble
b ow
s et
 tal king
al thy
 star t
 fin ally
 delic ious
 b ow
in ed
m e
 w ings
 pus h
 st re
 st and
 shin ing
ig g
a pp
ell a
' ll
 m other
 pa w
g g
 f an
 pudd le
 p re
 hig her
 c aught
ask et
 b asket
 sw ings
 no se
 r a
 dro pped
 se ed
 sa me
 sc ream
 m ail
 rain bow
 day s
it ch
 br ing
P lease
 e gg
is k
O K
 wo ke
ck s
 st one
e b
 to m
 ar ri
 Tom my
 b at
 tast y
 se ar
s w
 b uck
 year s
 her self
c hes
 sp in
 an sw
 own er
i er
 b en
 t eddy
 farm er
 che ered
 bel ong
 sa ck
 f it
 p ers
 w ore
 te ac
s y
 n ut
 cut e
 tw ins
 chee se
ll ie
isk ers
 c orn
s c
 doll s
ph ant
er ry
J ack
 m ine
 hop ed
 Bl ue
 m in
 sing ing
 ro pe
 car rot
 gent le
 R emy
 bre ad
Fin ally
 ele phant
 gre w
 she ll
 v ill
 fore ver
 c our
 te ach
 cr ay
 see m
 sh ap
 wonder ful
 tr ou
 hear t
i pped
 pr ob
 car ry
 Em ma
b all
is a
 drag on
 sound s
 pu ppy
 to uc
le m
 sh ook
 mo st
 p ile
o se
b r
 prob lem
 n um
 h oney
 cour se
 bus h
G ood
 arri ved
ra ct
 sh ake
 l unch
 hid ing

  
 p ower
 ab le
 j oy
ir th
id ge
f used
 teac her
 dir t
urt le
 f ence
 Th ank
 ben ch
irth day
 in c
at or
 stre et
 shap es
 hold ing
ir p
 Wh iskers
i an
ad ow
 hor se
aught y
u nt
 vill age
 touc hed
 b and
 pl ane
 p op
 sp ark
 me et
 prom ise
 n aughty
 bus y
 bug s
at o
 sh r
e ared
 belie ve
 ju ice
 be ll
 sp oon
 tri p
 k ite
 fe w
ep end
 feel s
 e as
 sh ar
 c ave
 b irthday
 shar p
am a
 B ella
 tow ards
 or gan
 d es
ount ain
 pat ient
n ey
 up set
 t urtle
 sp o
 ne ck
 l ate
 wa r
 po cket
 star s
 no ises
 j our
 stor m
 m ark
 help ful
 fo ld
o l
g ly
 gi ant
 cl oth
 B u
 ball s
 le m
 dri ver
 m ist
 k iss
 gr ay
 o b
 c ard
 li ve
 whist le
et er
 w ra
a ur
 ru de
 l ucky
 u gly
 t aking
 magic al
 hug s
al m
l ing
 slow ly
 se at
 treat s
 pill ow
 w ild
 re c
 ro b
u b
il k
ll a
 stor ies
re ad
o st
 sp id
 s uc
 co ver
 dis app
 amaz ed
 m ilk
co l
 sh y
 duck s
il ing
iz e
fort able
 rob ot
ump y
 z oom
 w ide
 s er
 was n
 d ist
 str ing
 F red
ul ar
 pu zz
 ph one
 dro ve
 M ark
o ve
 in v
 spl as
 sand w
 mo on
 gl ow
 prin cess
pp ing
 co in
 see k
 buck et
 you ng
 snow man
 gra b
ell y
 n et
 L e
 c ir
 whe el
 bo ss
 J im
He y
 par t
 hug e
 Fin ally
n ot
ir t
 s ug
 in stead
 s el
L ila
bb les
 dad dy
en s
 wr ite
S ure
 b one
or s
 can not
un g
L ater
 m ach
 th in
pp er
B e
  On
 m ot
 L isa
u p
O f
 cook ie
 cra w
 c a
ig er
 fo ot
 J ust
 sel fish
 sa l
 ch ick
 sp icy
 dri ve
 s ick
 C at
d en
 sl id
 fix ed
 la st
 com es
 adventure s
 for get
 spid er
 ste pped
re st
le t
 k itten
e st
 hid den
 ch ased
 d i
 spr ay
 s uddenly
 C ome
l ower
 te a
og gy
 t ie
 fight ing
 v al
 be ak
 she lf
irp y
er t
 miss ed
d ge
 sleep y
 o ven
 fin ish
 t id
 l ad
b led
 wa ve
 b ark
 L una
 Mom o
e rest
oo se
 cle ver
ri ll
 pe ace
 p ath
 mess y
 ac ross
er y
 r ad
 li fe
 gr ate
 con fused
 smo oth
 p an
 l ater
 che w
  N
 tast e
 B unny
 j elly
iz z
 lad der
 int erest
 im ag
 ch ange
S oon
 r ing
 watch ing
 land ed
 grate ful
t o
S t
 leg s
 as h
 gr umpy
e ver
 que en
 song s
 jo ke
 ch o
op h
 f le
it y
 was h
 tid y
 b ought
et h
am ed
 sp e
ion s
 th ough
 y og
 s our
 J ill
ain ed
 Dad dy
T o
 z oo
 my ster
? ”
 c ou
  ent
 ex p
 rock et
 stick s
 mach ine
 A nn
 lem on
 Gra ndma
if e
 li ft
y ard
ug g
 f ing
 d rew
 car t
iz zy
 hop e
 dog s
 l ay
 b an
 Le o
m er
w ard
 que st
 j og
ar s
 cloud s
w el
 st ep
 p ack
 not hing
 c alm
 back yard
 wor m
 she ep
 Ch irpy
 f il
 gent ly
 B e
 take s
 place s
 al ong
oo f
m ing
on es
ll o
 wonder ed
 je wel
 pl ate
 expl or
 O llie
un k
 interest ing
 k ick
 J erry
 fruit s
 b a
 smell y
or row
 seem ed
 sc ar
 ne igh
 mot or
p ty
 forg ive
 em pty
k in
 m ap
 face s
 ban an
pec t
 any one
 W ith
 who le
op e
bo x
 puzz le
er ly
 boss y
 spl ash
 sa ve
 m ind
 long er
 arm s
 wor king
 la w
 neigh b
 a v
 on to
on t
  ign
 p our
 wo lf
 d ish
 smell ed
or k
C ome
 m aybe
 pr ot
 bor ing
 T V
ul t
 we ak
 su pp
 mist ake
b ar
 love ly
s p
 fe ather
ip e
bb le
 pers on
oom y
 w ing
 m ed
o cked
 jump ing
 tom orrow
 p ract
 give s
 eas y
 re t
 sa ved
 plant s
 la zy
 fr ont
os aur
n ed
 p in
 de er
 trou ble
 ret urn
 g ather
ar ge
M y
 swim ming
 s uch
 a ct
 c ross
er a
ac ed
m ent
 go es
ra ss
 he althy
 so l
 ant s
bar rass
S ally
 wait ing
 em barrass
 num ber
 M olly
izz a
 mat ch
one st
it ing
 tr ue
u ally
 go ld
 f ake
 The ir
 fan cy
e k
 l ine
om an
 din osaur
 h onest
 scar f
ir r
 p izza
o c
K itty
 p ool
 jour ney
A nd
 w oman
 app eared
v ous
 l arge
 imp ress
 Wh y
 st ood
  icy
u ce
 h um
 e ag
 che er
 power ful
 dr um
oo p
 not e
a w
 love s
 Bob by
 suc cess
 cray ons
 poin ted
 c age
 M y
 near by
ur se
 put s
 d ig
 pretend ed
ge st
 S omet
 splas hed
 To gether
 n er
 ner vous
 te eth
 sh adow
 scream ed
 ash amed
 sh ark
 answ er
 sandw ich
 s ur
 no isy
 tr ust
 so ld
 P lease
el p
 ri ch
 D oggy
 ch ase
 we aring
 a f
 danc ing
 co zy
in a
 w is
 clos et
 wa ff
 ha ng
 cl ay
 car ried
 bo ot
 he llo
sc ape
 st ret
ic ked
 fe ar
 be an
l ive
aught er
 boun ce
ad o
 sn ee
 H ow
 so ap
 sh ip
 clean ed
 G o
 sear ch
 lo ck
 I f
 re g
 M ary
 t ape
ut e
ra id
 sm iling
 rel ie
 af raid
p a
 tri es
 g ate
 D on
 creat ive
 prin ce
 pain ted
 p ri
 mat ter
 gl ass
 b al
if f
 pol ite
ar l
 mom s
 sh irt
 dec or
ra g
n ess
St op
 s que
 fe et
H elp
 sa f
 r are
 clo ck
le br
 d aughter
 f at
 v ase
 ho se
 ce lebr
 v an
 c ap
 B ear
 cou ch
 corn er
 Ben ny
D ad
 st ra
 a p
 br idge
 wa nd
 dr ank
 cla ss
is p
 balloon s
im p
 the se
 B ird
 cho col
itt er
 build ing
nd pa
 t ent
 prin t
 kne e
 b arn
ot e
 th ick
 t iger
 h ur
 cl ap
n ic
 prot ect
 pic nic
 m irr
 je ep
 b ake
s er
 S t
 wh isp
 dis co
 chick en
 fur ry
u al
 fe ed
 ba ld
 might y
 g igg
 myster ious
 mirr or
 embarrass ed
 po or
 j et
 g un
 st amp
 peace ful
ens ive
 cl own
 cir cle
 kn ocked
 k icked
 te le
 relie ved
 m is
 exp ensive
 T r
 cr own
 Somet imes
iss ors
 sp ace
 res pect
 her o
 organ ized
 me asure
 a unt
 chocol ate
 sug ar
 mar ch
 S ome
 pol ice
 l amp
bb y
 st ir
y m
 g as
 wh ale
 f ool
 bec ome
vent ually
 would n
 f rag
 tast ed
 g en
 e ld
 wor d
er ries
 too l
 sc issors
 sc are
 cle ar
ust r
o ppy
k n
 sp read
 explor ing
 coll ect
 b erries
l ves
 yell ed
 wa ke
 bran ches
 te st
 frag ile
u nd
an y
 t ick
 r ough
 d ull
 d izzy
 squ are
 pot ato
m b
 p ay
 stu bb
 c and
 br ush
 S p
c ed
 was hed
 tow el
 lo se
 fool ish
 bl ow
 underst ood
 mu ff
 inc red
p ort
kn own
 tw ist
  3
 stubb orn
 h ar
 eld erly
ustr ated
 la b
 gr oup
 fam ous
 le ad
 fing er
 B r
 so ck
 nut s
 incred ible
 fr ight
 find ing
al ous
 mix ed
 hear s
 un known
 je alous
 h orn
 T iny
ig hed
 bre ath
 r at
 pre s
 y arn
 sun f
 gl ue
 ex am
or y
 c ri
 c one
 bo ard
 fr ustrated
 A l
d le
 p ump
 no sy
 b urn
  ind
 d ug
 com fortable
air s
 draw ing
 dr op
 st ones
 ro se
on y
al k
 fl ag
 egg s
 ad m
 t aught
 gu ess
an ged
 t er
 fi er
l ace
 m ountain
 fright ened
y al
W here
 bu bbles
ink y
 gen er
 fier ce
 wr ote
 neck lace
 un us
 to ast
 ter ri
 f ine
sh ine
 sear ched
 mag n
 de ad
or ry
 wh ich
 unus ual
 sp ent
 d epend
ow ed
o nd
Tom my
g u
 sun shine
 pr ay
i que
 sho e
 creat ure
um e
f ic
an ut
 seed s
 sc o
 c ab
  '
 we ird
 un ique
 dif fic
 we althy
 cover ed
p id
get able
 ve getable
 se ll
 lo yal
 end ing
 diffic ult
ob e
Wh o
 lo g
 st at
cy cle
c ient
 wag on
 stu pid
 gener ous
 ch anged
irst y
To gether
 st ri
 m ic
 hat s
 cab in
 or d
 depend able
ak en
a pped
 your self
 sw ord
 ign or
 un l
 n orm
 do ve
 delic ate
 an cient
z zy
 me al
 banan a
 Jim my
re en
 spo iled
 rel ax
 ac orn
 norm al
 join ed
 tri ck
 no ds
 gl oomy
J im
 your s
 th irsty
 paw s
 disco ver
 as leep
c il
 jo lly
 expl ained
r ay
 cra zy
 as king
E very
 sh ine
 bal ance
 a dd
 t aken
 pen cil
 mo v
 hair y
 cl um
 D ucky
 mo ving
 m el
 ha m
epend ent
 thank ful
 st uff
 clum sy
 bath room
 Wh ile
at es
 te am
 re f
 magn et
 c ries
 to ug
 stat ue
 Tr ue
y ing
r obe
 wa ves
 sque e
 pres ent
i ant
 fr own
 f ig
 bl oom
un n
 tw ig
 sh ore
He re
 wra p
 use ful
 toug h
 sunf lower
 bor ed
 terri ble
 sto ve
 neighb or
 mark et
 bed room
 b itter
m et
 tr ump
 pe pper
 p ant
 e scape
 W ill
 P e
 trump et
g round
 r ug
c om
 ind ependent
 hel met
  No
 eag er
 small er
id dle
I f
 sw an
b ers
a ppy
 snack s
 sal ad
 ro ar
 impress ive
 get s
 f our
 count ed
 cat s
 advent ur
 E lla
x ible
in ess
 val ue
 v ine
 c ro
 adventur ous
 sho ot
 stra w
 pe anut
 motor cycle
 exc iting
 You r
ia ble
 h ay
 pump kin
 l ow
 bott om
se lves
 t imes
 ste al
 sl ipped
orm ous
 go at
 f ountain
 en ormous
 bra ce
 ar row
 Br own
 success ful
 M ama
rill iant
 spot ted
 need le
i v
f ted
er able
 sol ve
 mis erable
 m iddle
 b rilliant
 M any
en ny
 past a
 pant s
 mo der
 fle xible
 f is
 s ighed
 ob ed
 T w
 w itch
 r aced
m ost
 In stead
 to oth
 ser ious
 moder n
 fil thy
 pig e
 know ing
 j am
 d ough
 g uit
 d ust
 al most
 m ill
 en g
 cu be
 obed ient
 g em
 bor row
ber ry
ce an
 o cean
al s
S orry
 tell s
 bo dy
 pop ular
g ust
 sc r
 pain ting
 care less
M um
 wa nder
 kn ife
 dis gust
 com b
 tom ato
 che st
l ight
c orn
a ff
In side
A re
 qu ar
 or ig
our s
 par rot
 ch arm
 Jen ny
 rel iable
 pop corn
 n ail
 fl ute
ul u
ob y
M e
 house s
ic t
 p ian
 guit ar
 fear ful
 cr ane
 belong ed
 sa uce
 quar rel
 pian o
 p ir
id ent
 ve il
in al
H ow
 p ipe
 gra ce
 comp ut
 And y
 me at
 kn ot
 fr idge
 disgust ing
 t ied
 show s
 pick s
 h ook
 coll ar
 brace let
at ch
 wra pped
 orig inal
 comp et
an o
 waff le
 met al
 c am
 sh iver
 fig ure
 charm ing
 c her
x ious
am ond
 t ax
 pass ed
 kiss ed
 an xious
 rem ind
  U
d ile
co dile
 st ream
 muff in
 le an
 di amond
z ed
u be
op ter
ic opter
 spr ing
 li fted
 hel icopter
ag es
 med ic
 g um
 c op
lc ano
er p
 mov ie
 medic ine
 ho pping
ll ip
llip op
ed y
 thought ful
 tax i
 stand ing
 eng ine
in ary
i o
 r oof
 ham mer
 h arm
 z ip
 pri ze
 gu il
 en v
 cray on
 comput er
l and
 to r
 lo llipop
 cro codile
 che ap
ung le
Tim my
 hurt s
 he al
 p ress
 m ask
 guil ty
 fl ash
om es
mb re
h ip
 vo lcano
 u mbre
 ru ined
 be et
ex t
 te m
 t ank
 reg ular
 de st
 cry st
t i
he t
 st age
 j ungle
 hum ble
 hard er
 de af
 av oc
il t
 tri cks
 t ap
 pen gu
 friends hip
c ream
 t ube
 pr un
 li z
 happ iness
 tor n
 sh ade
 mu sh
 cam era
op ard
 r h
 need s
 bat ter
in ted
g ing
 sw e
 rest less
 des ign
het ti
ct us
ag hetti
 vegetable s
 te ars
 P olly
u bby
az e
ac he
 smo ke
 rec ord
 o at
ul b
az z
 sp aghetti
 pa le
ig ator
 stu dy
 po ke
 pen ny
 p ow
 ear s
 compet it
 comp ass
 cheer ful
 box es
 f ather
 g ar
 Sam my
unn el
erp ill
Sara h
 t unnel
 sold ier
 m op
 cat erpill
 answ ered
The re
 mush room
 m itten
 inv ited
 ch ubby
at ter
 play ful
 l it
 env ious
 c omet
 bel t
 R ex
l ph
com fortable
 yog urt
 w ip
 un comfortable
 le opard
 fl uffy
 disapp o
 an g
 Em ily
it her
Bob o
 truck s
 tri ang
 liz ard
 is land
 craw led
 compass ion
 ch oose
 ca ctus
 all igator
 pers ist
 loo p
 ce re
 carrot s
 ro de
 ha lf
 grace ful
 for k
 cra ck
 boat s
 b ulb
 S h
 L ulu
  er
M olly
 spe ed
 s le
 rad io
as ses
 un iver
 tr unk
 pe bble
 g oose
 feather s
 caterpill ar
 E ven
 yog a
 shr imp
 pige on
 mo le
 h omes
 des k
ot o
 perf orm
 do lph
ur key
 us ing
 sh ape
 persist ent
 no d
 cryst al
 cere al
c les
 umbre lla
 tem p
 t ire
 r ag
 help s
 bu ilt
 beet le
 To day
The ir
 v ide
 li cked
ell ig
M ama
 t ag
 ord inary
 on es
 gar age
an ger
 whisp ered
 spin ning
 sleep ing
 return ed
 lo cked
 O K
 J ake
 Bu zz
y e
 whe at
 t urkey
 cup board
p es
 m elt
 int ellig
 me ant
 gi ving
es day
eb ook
c ident
 sc ale
 not ebook
 help less
 en c
 re p
 quest ions
 quest ion
 ju dge
 co ins
 w ire
 s il
 ra ven
 pract iced
 lo ad
 disappo inted
 del iver
G o
 we ek
 s uit
 plan et
 jelly fish
ie f
c ut
 mail box
 l ying
 he dge
 c ase
p ed
ch air
 walk s
 li br
d om
 loud er
 celebr ate
 r id
 pour ed
 craw l
 be es
 ac cident
 y aw
 squ ash
 pr o
 j ug
 c ob
 al ert
op l
er opl
 ru b
 del ight
 compassion ate
 ch alk
ber ries
 wall s
 happen ing
 dec ide
 ang el
 a eropl
v ator
 tick et
 sh ield
 sa iled
 ele vator
 com pl
 arm chair
  ed
 way s
 triang le
 off ice
 nice ly
w eb
p ack
 sp un
 intellig ent
ess ie
at ient
 trou bled
 st ack
 sle pt
h ost
 th read
 cob web
 ac ce
J ane
 sp ill
 num bers
 d eter
 bar ber
 sc reen
 m ug
rew ork
ill a
eb ra
 ro d
 live ly
 imp atient
p et
 gif ted
 g host
 b icy
 z ebra
 wis hes
 res c
 harm less
 deter m
 S n
 sp end
 past ry
 in se
 ent h
 car pet
 sn iff
 for ward
 foot ball
 cre ate
 cart oon
 boy s
w as
was her
ul if
is ted
 dish washer
i k
 p ony
 co st
us ia
 hot el
 enth usia
 count ing
 aeropl ane
ulif lower
 inse ct
 har sh
 competit ive
 avoc ado
 unl ock
 s ink
 pol ish
 gl ove
 fi rework
qu it
 stret ch
 for th
 she et
 say ing
 s end
 ca uliflower
 tra vel
 st um
 shell s
 se al
 po em
 p ine
 light s
 laugh s
 h oop
 flash light
ut h
s quit
, ”
 th ief
 str anger
 sk in
 mo squit
 exc ite
 c able
 sw itch
 dest ro
 beh ave
G ra
 wheel s
 par ade
 a dded
 M um
 st ation
 o y
 fis her
 comp let
t en
l ies
as ing
 sc atter
 mat t
 f u
 ed ge
 e ventually
 bar rel
as er
 temp le
 spl it
 mosquit o
 fire man
 enc ou
 dream s
 c oo
 snee ze
 ru bbed
 rad ish
 o live
 fold er
 boun ced
ack et
 tra ck
 ro ot
 ri ce
 b ull
 h ipp
 go lf
 c ush
 bus hes
 att ic
ra ge
B illy
 p un
 mel on
 gu ard
 fl ame
 we ep
 un cle
 tr ay
 o ak
 tra p
 strong er
 sh ut
 sco ot
 j acket
 gr own
 g ir
 decor ate
 c amp
 b ump
 ad or
 on ce
 hair cut
 bicy cle
uc et
ar ry
 or der
 new sp
ur ing
j ect
c ase
 th u
 st aff
 sk ipped
 hipp o
 dist ant
 M iss
 wall et
 qu it
 pengu in
 learn ing
 fa ucet
 dolph in
 ch ain
 T oby
 slid es
 pat ch
 ador able
 a ut
 P ipp
 mix er
 clean ing
 big gest
at ing
 sand box
 g or
 fisher man
 F r
el ery
 te ar
 sp ir
 her b
 glow ing
 brother s
 att ract
 T ina
ie w
b ul
 p le
 kind ness
 imp ro
 L ittle
w ork
se um
ik i
 v iew
 str ugg
 destro y
 b ase
 attract ive
st ic
bul ance
 y ach
 spe ak
 sp ear
 show ing
 pre p
 mu seum
 matt ress
 cri cket
 am bulance
 a w
in es
co a
Jim my
 vide o
 gr owl
 gather ed
 them selves
 spir it
 po le
 n urse
 gor illa
 miss ile
 la ser
he ad
 yach t
 sh ort
 play ground
 c elery
ob ile
 oy ster
 organ ize
 newsp aper
 min er
 l ed
 enthusia stic
 ear th
 determ ined
 col our
 R ose
v et
us hed
G ive
 t ummy
 ste ak
 sor t
 sc rew
 re ward
 pow der
 mar ry
 m aze
 er aser
 en vel
 call ing
 F o
ot ter
de st
 sk ull
 sal t
 r ot
 it ch
 cand le
 book case
 b ri
  otter
om obile
is ion
ag ed
 y et
 mess age
 fa ctor
 disapp eared
 band age
 aut omobile
ht ub
 pe ar
 fr ame
 S unny
 po st
 cl ub
 bat htub
ur b
re ady
J ill
 tr uth
 t ask
 swe ater
 factor y
 black board
 b in
 b ill
et e
 p urse
t ime
 wip ed
 on ion
 h unt
 fall s
 enjoy ing
 al ready
 Tw eet
col i
c coli
B ye
 sun g
 sug gest
 ra ft
 Bu zzy
 mu le
 co coa
 c ell
ter n
it al
 ser ve
 p it
 mo dest
 libr ary
 know s
 ignor ant
 cook ing
 coo ked
 button s
 ar g
ree k
p er
 poin ting
 pack age
 fle a
 fe st
 dist urb
sp ital
o ld
' d
 ve st
 ho spital
 dri ving
 c reek
ut es
 sa us
 pe e
 imag ine
 h ours
 bl ouse
l asses
et ty
 sung lasses
 sp ell
 complet e
 bill board
 w ife
 tri pped
 r ise
 it self
 dream ed
iv al
im ney
ak y
a ving
W ell
R e
 tele ph
 sur f
 saf ely
F luffy
?" .
 me m
 m ild
 D an
n al
fe e
f fee
 val u
 tr oph
 teleph one
 so ar
 roll ing
 no vel
 make up
 bark ing
ent ion
 ri bb
 fest ival
l a
and a
 straw berry
 ru bb
 re ver
 oat s
 fil m
 cool er
 bro ccoli
h ic
 ve hic
 v i
 t en
 re pe
 hur ry
 scoot er
 p or
 p al
 min utes
 boot s
p ar
A l
 troph y
 s ize
 jour nal
 free z
 cup s
 ch imney
  V
 tra sh
 ha ll
 d ive
 bag s
 L ook
  ow
 pal ace
 o il
 not ice
 ear ly
 e ither
 bike s
 K im
 Every where
pl ay
 read ing
 co ffee
 P oppy
ar ian
 w ool
 ho les
 cush ion
 bu bble
n am
 stum bled
 st airs
 p ed
 man aged
 gigg led
 R ob
 pat tern
 me adow
 loud ly
 gra ndpa
 envel ope
 Bird y
S ee
 th ose
 step s
 sk ip
 se par
 expl ain
 c ity
 P eter
l u
 s ight
 frog s
 co al
 Pe ople
 pe ach
 open s
 o k
 dis play
 rep air
 per m
 mean s
 fast est
 dra in
 Z oom
 thu nder
 kn ock
um b
nam ent
c ing
 por ch
 or nament
 hang ing
 compl ain
ke ep
ap ers
 when ever
 valu able
 u r
 s on
 res ist
 pa cked
 m ath
 inc lu
 bat he
 al arm
c ome
ail able
I s
 tra ins
 pain ter
 di ary
 att ach
ol in
 grow ing
 r ail
 ey e
 B essie
 stop s
 sh aking
 freez er
 che ss
il ot
bo l
Jo e
 sho cked
 f ive
 draw ings
 draw er
E m
 pir ate
 hold s
 C o
ri c
 vi olin
 pick ing
 of ten
 m en
 k ay
 j unk
 g ear
 che ck
ym bol
x y
 sail or
 nam es
 mar ble
 m ay
 c ord
 bl in
 av ailable
at ure
 star ed
 shr ink
 pretend ing
pl ace
in ation
af fe
 qu iz
 mar ched
 card board
 again st
 K iki
ug ged
 sn e
 ne at
 excite ment
 spark ly
 ru les
t e
c key
ar oo
ang aroo
 set t
 resc ue
 ho ckey
 hand le
 fu el
 air port
 wh ip
 supp ort
 meet ing
 kay ak
 can e
bo dy
 tool s
 p apers
 med al
 k angaroo
 fire place
 ex t
l ow
 letter s
 kn ight
 gra nd
 gir affe
 gas ped
ur ed
 g ym
 fl our
keep er
 sw amp
 p ilot
 m ummy
 le ash
v ision
r on
om ed
ie st
ce ed
 tra il
 thin king
 real ised
 impro ve
 f ile
en se
 tele vision
 mag az
 lab el
a it
L ittle
 su per
 pract ice
 in k
us ie
oph one
l oo
ig loo
 tw irl
 tell ing
 po ked
 op era
 cabin et
 butterf lies
  igloo
M ummy
 re ce
 ext ra
 any where
 a head
 torn ado
 tight ly
 stret ched
 n ation
 c urt
 be ep
 R ed
 A re
 suc ceed
 pl ates
 bee f
 ag ree
v ice
r iger
riger ator
a id
 sho vel
 s ymbol
 ob ject
 listen ing
 jump s
 curt ain
n a
f ast
ac hes
O w
!" .
 st om
 r az
 press ed
 pin ch
 perf ume
 pee ked
 p anda
 fav our
 does n
 break fast
 belong s
 base ball
ist ol
D aisy
 t ut
 ref rigerator
 off ered
 min t
 l ime
 happ ier
 ch ance
l ter
 we igh
 she lter
 in s
 cow s
ir on
ast ic
 nap kin
 favour ite
 discover ed
 d ess
 bath robe
 Sp ike
 B etty
 was te
 tow ers
 light ning
 fall ing
 dis ag
sc ope
ro scope
n ger
 tut or
 j ail
 ce iling
 books he
 O live
 pass port
 dist ance
 any way
 Do lly
ic hes
i ence
 ve nd
 po pped
 magaz ine
 law n
 bookshe lf
urn it
urnit ure
 tr ade
 sandw iches
 p istol
 jewel ry
 batter y
 basket ball
 R u
 P ete
 He re
y er
und ry
pe edy
aur ant
 separ ate
 rest aurant
 la undry
 f urniture
 ad vice
 C arl
op us
 the ater
 stick ers
 pro v
 poin t
 ch ose
 o ct
 Sn ow
ht ray
g en
O uch
 vend or
 raz or
 law yer
 ju icy
 as htray
i um
at ely
 rever se
 pe ek
 oct opus
 mic r
 lot ion
um ber
 li p
 l end
 g rill
 Gra ndpa
 B inky
 t ub
 ro ared
 micr ophone
 le aving
 climb ing
 all owed
 a x
 w ine
 tall er
 st able
 sk irt
 c ards
le ton
ke leton
 swing ing
 sl ip
 ple ased
 imag ined
 f og
 carry ing
 bu ry
 banan as
 ax e
 B oun
s ity
 problem s
 mic roscope
 happen s
 cir cles
 Z ip
 G ive
W ait
M r
 ra ise
 h ut
 dream ing
 cl iff
 O w
  iron
D id
 sweet ie
 spo ke
 kn ob
 g ro
 un ite
 sound ed
 rh in
 n ature
 lean ed
 l id
 dess ert
rm omet
ion ary
 w igg
 vehic le
 su b
 spill ed
 sil ver
 s uff
 W here
rmomet er
re s
oc er
ict ionary
 squirrel s
 inv ite
 in f
 hat e
 gra pe
ocer os
is on
f a
C h
 w ipe
 ph oto
 past el
 cost ume
 blin ked
og n
 ste am
 pudd les
 pl astic
 must ache
 miss ing
 li e
 d ictionary
ile t
 rhin oceros
 hunt er
 T eddy
ad ium
 we ather
 to ilet
 st adium
 rec ogn
st ri
ro d
el come
as p
 the rmometer
 pa ir
 ob ser
 miner al
 int rod
 frown ed
 cla w
 acce pt
 M ar
ur ch
 te ase
 prun e
 gra pes
 excited ly
 B ill
st airs
re nder
 we ap
 war ned
 s keleton
 help er
 an ch
 z ipp
 rubb er
 fing ers
 coll ec
 suggest ed
 shout s
 h ive
 anch or
 Pipp in
um mer
asp oon
 sun set
 squee ze
 re fused
 pre vent
 le ak
ic er
c u
ation s
 window s
 un if
 tre m
 stir red
 o stri
 joke s
 hun g
 hand ed
 S peedy
 unif orm
 un pack
 surpr ises
 sl ipp
 sad ly
 me as
 hop ing
 car ing
am ber
 zoom ed
 spo il
 search ing
 ign ore
 ch urch
 c ur
ve al
e f
 win ter
 danc er
 ab ove
 supp ly
 so fa
 saus age
 rid ing
 old er
 m all
 re veal
 music ian
 ch asing
 Al ice
as is
 shake s
 r ush
 poin ts
 kind s
 ch amber
 c udd
 blue berries
d robe
ale nd
 war drobe
 spray ed
 sa ving
 rain ed
 p ages
 fix ing
 cher ries
 c alend
 accident ally
 J azz
n ight
m end
 sub way
 sh one
 proud ly
 inf ant
 chair s
id ay
 sw ung
 sur render
 so il
 r ake
 put ting
 ostri ch
 kne el
 find s
 dis hes
 ap ron
om mend
Q u
Gra ndma
w e
m ed
 te aspoon
 sn ap
 s ummer
 s ent
 respect ful
 rec ommend
 gro c
 calend ar
 waff les
 star ts
 mistake s
 li c
 flo at
 disapp ear
 colour ful
 bright ly
 bean s
 b ent
 arg ue
in arian
eter inarian
 r ushed
 pull s
 pan ic
 o asis
 men u
 l umber
 go al
  �
Y ay
 v eterinarian
 stri p
 stick er
 p age
 ho l
 adm ire
is ty
 hol iday
 Bu bbles
 repl ace
 grab s
 feel ings
 com fort
 buck le
 M ike
 B ow
z ag
 reg ret
 pu p
 li ves
 P andy
N ext
L isa
 r ac
 b erry
 Fred dy
 C l
app ing
You r
 de ar
 co pper
ig zag
ec ause
a ul
 sniff ed
 ribb on
 even ing
 W ould
th ank
her o
amp oo
a ked
. .
 super hero
 hum an
 f ought
if i
all ey
 univer sity
 end ed
 door s
 cri b
 S usie
h appy
e er
ang u
W ill
 v alley
 s igh
 re ef
 l angu
 claw s
n esday
im ed
ed nesday
 y ield
 snee zed
 repe at
 rem ove
 ran ch
 app l
w ards
 sh ampoo
 monkey s
 lic ense
 inc re
 bark s
 N ext
 pus hing
 olive s
 bri ck
 yaw ned
 t ip
 suff er
 squee zed
 his t
 gigg le
 cast les
 bright er
 bre at
ind eer
Dad dy
B uddy
 cross ed
el vet
Y uck
 thank s
 remind ed
 re indeer
 hist ory
 forg ave
 He l
ugg age
 un happy
 slipp ery
 play er
 ped al
 l uggage
 impress ed
 ha nger
 delight ed
 chick ens
 break s
 bear s
 W ednesday
 T ed
 O r
 M andy
 E nd
 weap on
 stick y
 soft ly
 prep are
 f re
in ce
 trust ed
 throw ing
 sun r
 adm ired
ric ane
d el
Re ady
 so cks
 pun ish
 class room
 stamp s
 myster y
 let ting
 car ed
 bump ed
 bu zz
 ap ol
 P at
 trem ble
 stu d
 he at
 apol og
 zipp er
 sunr ise
 s udden
 lem ons
 exam ine
 che cked
o e
m en
au d
as on
 w re
 pus hes
 my self
 mo del
 l uck
ick y
 t una
 st air
 sp ade
 mat ches
 m ass
 E llie
 wis dom
 p ort
 Z oomy
 pig s
 cr ow
 count ry
er c
 fre sh
 drop s
 del ay
 coat s
 cla pping
 cher ry
 be nd
Al ice
 v ac
 ste el
 star ting
 st y
 spark led
 shiver ing
 explor ed
 en er
 L illy
 F ifi
y ear
c age
 univer se
 should er
 prov ide
 plan es
 inv it
 fl ood
 fl ies
 bird cage
 V elvet
oph ie
in king
er o
M ary
 wre ck
 smell s
 shr ugged
 ar t
 Mr s
  Y
b or
arl ie
 snow ball
 hor ses
 fl apped
 P enny
 Co co
co nd
 tw isty
cu ss
b les
 throw s
 stom ach
 spot s
 sn ugg
 gi ven
 appl aud
ri age
A ll
 to e
 some where
 se cond
 har bor
 dis cuss
 cho ice
 burn ed
 be g
 D og
 room s
 pl aced
 mail man
 imag ination
 f urt
 cont ent
 Sh aring
 B ig
u esday
em ent
ch an
 rest ore
 ex erc
 eat en
 John ny
 H ave
 sk ill
 hill s
 call s
 Gra ce
M imi
 to ur
 splas hing
 min ute
 langu age
 free ze
 for t
 cou rage
und ay
e or
chan ic
M ark
Em ma
 me chanic
 keep ing
 hop es
 furt her
 e vent
 belie ved
ht er
 p alm
 net work
 laug hter
 groc ery
 flo ated
 cand les
 S unday
 pa id
 ch irp
  

 prun es
 hur ricane
 exc la
 U nder
 R o
 Hel p
he art
eor ge
c ast
 whisp er
 strugg le
 stre ng
 show er
 sett le
 scr atch
 sco ld
 off er
 ener gy
 d em
 ap art
 T uesday
 E lly
W elcome
 w ob
 vac ation
 tra cks
 sand cast
 lion s
 introd uce
 ins isted
 follow ing
 H op
uc ture
itten s
S h
 streng th
 rabbit s
 m ention
 after n
 F l
 str ucture
 par ts
 no body
 mar riage
 inclu de
 fold ed
 excla imed
 boun cing
 al ive
 aftern oon
 S k
ra ged
g es
er ation
A nn
 sweet heart
 pray ed
 mass age
  x
 v room
 sp ike
 so ak
 perm it
 le ather
 hear ts
 dem and
 chew ed
que st
ff ic
c er
W oof
Be fore
 neighb our
 in st
 gre edy
 D ave
ott en
os ie
ill ie
a h
 se w
 re quest
 rain ing
 me owed
 h on
 exp er
 b other
 When ever
 Fin ny
uc t
m are
ac ked
 rac ing
 l ung
 wag s
 tra ffic
 th umb
 sp ort
 sail ing
 rh y
 plan ned
 land scape
 e qu
 beaut y
 bad ly
 S ee
 L ee
 H arry
 B ee
we en
J enny
 war n
 po ison
 plan ted
 encou rage
 eas ily
 bet ween
 b aking
x u
u xu
th m
 rem ain
 night mare
 Ow l
 M ummy
res ses
em ember
 whist led
 sty le
 mar bles
 d are
 com f
ar nt
 war ning
 s i
 rhy thm
 op eration
 obser ve
 le arnt
 U n
 H oppy
ree ze
 wag ging
 sit s
 qu ite
 ignor ed
 head s
 chee k
 Blue y
or ies
le x
i ally
 win ning
 up stairs
 sor ts
s pec
 yaw n
 tw isted
 treasure s
 sol ved
 sign s
 pir ates
 l uxu
 ex pect
 d igg
 close ly
spec ially
N ot
 lemon ade
 ent ered
 blow ing
 M ittens
 I s
 Every thing
or al
i ppy
 snugg led
 sl ap
 r ow
 new s
 m ama
 g ain
 digg ing
 Wh o
 S m
  ing
t ain
l ook
 ur ge
 stri ke
 scr at
 T una
red ient
Every one
B l
 teach ing
 sandcast le
 pa used
 p ur
 mem ory
 ing redient
 growl ed
 follow s
 e specially
 Ru by
 Boun ce
xy gen
he st
 weep ing
 t ug
 move s
 ag re
 ran g
 ent er
 br ings
 bow ed
 b ur
 Sp ark
r ight
ipp ing
B ella
 � �
 van ished
 recogn ize
 pin ched
 ingredient s
 encou raged
ip ment
 wr iting
 worm s
 should n
 shin ed
 sc ore
 li cks
 exerc ise
 bra in
uc ked
re at
h ouse
h ood
av id
 straw berries
 incre ase
 her s
 equ ipment
 L ucky
W ith
The se
 we ight
 we b
 van ish
 spr ink
 mem ories
 l ined
 invit ation
 g az
 fire f
 creature s
 cra sh
 bu ried
 P aul
re c
og o
 sn ail
 slid ing
 luxu ry
 jewel s
 hurt ing
 cu b
 was hing
 wander ed
 s ir
 peanut s
 jog ged
 j azz
 he el
 d ried
 bed s
 K ing
ster day
qu ake
op s
oop ed
en ry
e sterday
ar i
 s imp
 ra ised
 im age
 d aisy
 breat he
 back pack
 S ophie
s ed
is ing
dd y
 wa ving
 shop keeper
 puzz les
 pri ce
 po ppy
 celebr ated
 bl ink
 acorn s
 T oto
 R osie
n ce
To day
R emy
 under ground
 p ad
 fr o
 firework s
 earth quake
 dress ed
 Fo x
iz es
it es
 y ucky
 water ed
 d resses
look ing
L e
 st itch
 differe nce
 P inky
 Fin n
up s
que aky
g ie
ec ture
 wor se
 to es
 t ide
 pull ing
 o h
 cut ting
 bel ow
rec i
p ted
ak er
ache l
B ecause
 pun ished
 now here
 n avy
 count er
 con f
 catch ing
 cap tain
 b le
 G ood
or ted
o ves
S urpr
 understand ing
 sh ot
 see ing
 man age
 ide as
 disag ree
 cake s
 c ape
 boun cy
 bl ood
 att ached
 E ventually
c cer
ap a
J en
 spoon s
 seat s
 r ul
 quiet ly
 pret t
 pe ars
 is n
 ex it
 eas ier
 app reci
 Ann ie
m m
 mu ddy
 l ecture
 gif ts
 fa sh
 cre ated
 L izzy
M oral
 z ero
 so ccer
 shout ing
 rece ive
 re aches
 fash ion
 deep er
 d uring
 climb s
 blue berry
 blanket s
 att ention
 acce pted
 W ally
 T illy
  Qu
ol a
 gl oves
 eag erly
 collect ion
 collec ted
ict ory
 sh ock
 re lease
 prot ec
 paint s
 had n
 decor ations
 H appy
 B aby
un ately
sh ip
 wor th
 welc omed
 twig s
 sn apped
 prin ted
 k itty
 ba ked
i ved
Y um
 win ner
 pet s
 o xygen
 M illie
d ed
ag gie
Good bye
 vis ited
 skill s
 res p
 bal an
 Jo ey
r in
ke lly
et y
 ve l
 tw ink
 scream s
 potato es
 our s
 jog ging
 fl ap
 f et
 elephant s
 S queaky
 S andy
 z igzag
 prin ts
 inst r
 drink s
 Z ara
 Ch arlie
r r
d o
ang es
Surpr ise
F red
 vel vet
 s ince
 exper ience
 e ast
 Snow y
 H ope
 G ogo
 A lex
und red
s it
ip s
Bob by
 stra ight
 p itch
 king dom
 h undred
 destroy ed
 bit es
 ac ted
 B o
ss ible
omed ay
is ses
ct ion
ch ie
' ve
 wat ches
 rul er
 fall en
v a
ad ed
 saf ari
 rem ained
 off icer
 mix ing
 la id
 k isses
 S low
 Go d
 E ach
st ers
ic ing
d ing
M andy
 v ictory
 twirl ed
 tra pped
 scold ed
 s omeday
 kn own
 kick ing
 dr inking
 ble ed
 S kelly
 R ock
 It s
ve st
fort unately
ake s
 s izes
 pup il
 muff ins
 meas ured
 mar ried
 gr in
 cartoon s
 b reeze
 P ip
k ins
H a
Bl ue
 z ipped
 to re
 ring ing
 play s
 p ra
 hit s
 girl s
 forg otten
 f ed
 br us
 Dan ny
un e
in ing
ent s
 ur ged
 tra ve
 sk ipping
 pet als
 march ing
 bre aking
 P apa
r ing
 tomato es
 simp le
 reveal ed
 lip s
 S u
 R achel
or ed
n e
 sor ting
 sell ing
 po king
 p ies
 n apping
 gold en
 field s
 d ared
 al right
 D avid
 she d
 set ting
 scatter ed
 s ip
 pe aches
 me ow
 gaz ed
is hing
ind y
i ers
ap ed
 to ng
 stud ied
 sl ice
 T ony
 G reen
ent y
B u
 voice s
 tre mb
 sold iers
 rest ed
 rece ived
 perfect ly
 pattern s
 nail s
 hur ried
 hig hest
 cra s
 bri cks
 b ones
 J e
 Be fore
 A b
ch oo
 whist ling
 tremb ling
 sp it
 mel ted
 guess ed
 all ow
 Mar ia
 M o
 G eorge
os ed
C at
 wigg le
 str ang
 mitten s
 in vest
 fam il
 chew ing
 app ear
 Some one
 Fo llow
 Ch icky
 unl ocked
 sur round
 stuff ed
 se ason
 qu ack
 prin ter
 mark s
 m ice
 key s
 invest ig
 disag reed
 by e
 L ater
iz ing
T r
 flo ating
 Fr oggy
s ing
ore s
ig i
id s
 we st
 s ix
 rest ing
 mention ed
 e sc
 M ay
 A m
t her
pl ash
iz ard
b ug
b oo
a ved
Mom o
H appy
! '
 steal ing
 pe bbles
 n one
 mot ion
 meas uring
 import ance
 ha ted
 fire men
 fet ch
 b ab
 The se
 St e
 H enry
c us
Re ally
 supp osed
 sl apped
 saf ety
 investig ate
 col ours
 bab ies
 Pipp a
ig ail
an na
 wa ist
 to night
 strang ers
 pillow s
 em er
 trip s
 sne ak
 sil ence
 shadow s
 secret s
 play time
 mouth s
 kneel ed
 in ch
 ag o
om as
med i
iss ion
he llo
 t ucked
 so re
 m ister
 l ines
 gr ant
 br id
 D are
o ke
medi ately
he w
 w izard
 str ings
 ser ved
 perm ission
 herb s
 fl at
 fis hing
 burn ing
 bring ing
 be amed
 b ang
 app ro
 space ship
 mus cles
 let s
 adm ir
Em ily
 th rill
 spark ling
 sor ted
 pra ised
 past ries
 mat ched
 kn elt
 he sit
 cont est
 ch ores
 brid ges
 are a
 a chie
w alk
ant ly
 work s
 v et
 te asing
 moment s
 collec ting
 Sm ith
 G igi
r s
o ved
l er
h ind
Sam my
D an
B ird
 tong ue
 th reat
 stri pes
 relax ed
 o be
 dad s
 cur led
 L iz
 H o
 B ug
 A n
ut ter
u es
 their s
 side walk
 scrat ched
 ri pped
 res ult
 pr ide
 pile s
 land s
 e ight
 cr unch
 ord ered
 or anges
 n icer
 it em
 buzz ing
om ing
em bers
W ould
T w
 w ink
 si ren
 rem embers
 ped als
 op in
 obe y
 mach ines
 keep s
 craw ling
 brus hes
 Rock y
 J ul
 Be ep
z ing
bb ie
all en
 wait s
 turn ing
 sett led
 pe arl
 mon sters
 head ed
 bloom ed
 St ar
 R abbit
 F irst
ut ure
ust y
is hes
ir ts
gen cy
e ep
O k
!" ,
 wr ites
 what ever
 warm th
 ticket s
 sho pping
 play room
 melt ing
 lady bug
 f uture
 ch allen
 beh aved
 be side
 Sk y
 N ot
igg ly
Le o
" ,
 you th
 touch ing
 sprink les
 shoot ing
 food s
 esc aped
 L ola
 J ames
 Fr og
 B oo
u d
en a
 wonder s
 thrill ed
 ste ep
 sne aky
 gu y
 che f
 B oth
p lease
os ity
M mm
F irst
B oo
 sl im
 kind ly
 hon k
 d ire
 comf orted
 brave ly
 A unt
u se
n ie
irr ing
S omet
 y esterday
 spid ers
 sister s
 im mediately
 gl itter
 g ust
 dog gy
 disco very
 Somet hing
 L ike
m other
id es
ct ly
 so aked
 pol ished
 loo se
 disturb ed
 appreci ate
 answ ers
 amaz ement
 M aggie
 Boun cy
f ied
C l
 zoo keeper
 want ing
 tri cked
 tick le
 slim y
 sl ed
 saus ages
 r ings
 pu pp
 present s
 li ck
 g ained
 ex pected
 eat s
 cle aring
  Once
pp ers
Y ummy
R emember
 pre c
 h i
 fl av
 decor ated
 beg ged
 Ro ver
 O ut
 K ate
 Bird ie
 Al ways
z en
riend s
ay s
U n
A h
 zoom ing
 tast es
 task s
 stay ing
 st irring
 ro cked
 own ed
 organ izing
 cudd led
 contin ue
 chase s
 bro om
 Su zy
 B eth
 A lly
um es
O r
H ave
 st are
 spend ing
 prep ared
 firef ight
 emer gency
 e ff
 drag ons
 comp le
 cat ches
 Ho ot
 D r
 Cl ara
x ture
i en
Me ow
 te xture
 snowball s
 seem s
 rock ing
 ribb ons
 happ iest
 fro zen
 bott les
joy ed
id ed
he e
R o
 pol ishing
 po ssible
 over joyed
 our selves
 miner als
 famil ies
 con es
 aw e
 arg ued
 Slow ly
 S qu
unn ies
E lla
 wood en
 tw in
 strugg led
 spray ing
 small est
 sigh s
 root s
 prec ious
 opin ion
 fr ost
 drum s
 dinosaur s
 chirp ed
 bleed ing
 be at
 W ater
 P ut
 D id
l oe
E ventually
 study ing
 st ing
 grin ned
 eff ort
 dust y
 crunch y
 cost umes
 b unnies
 b oo
 appro ached
 W iggly
 S plash
 A bby
low ers
as hed
O llie
And y
' .
 ru le
 re le
 pot s
 pe el
 neighbor hood
 lo ving
 ins ist
 hero es
 gre y
 any time
 Pe pper
 P rin
 Be ing
 Ab igail
in o
M iss
. '
 str uck
 spark le
 rid es
 rep ly
 pe ppers
 pan c
 p ause
 lead er
 cras hed
 be lly
 apolog ize
 agre ement
 admir ing
 act ing
 St itch
ur ry
ic a
i b
P eter
 sh irts
 saf er
 open ing
 nap s
 instr uct
 dark er
 comple ted
 arri ve
 M at
 C ra
 Be hind
it ies
ir a
aw s
 work er
 w oof
 stretch ing
 sne aked
 ref use
 recogn ized
 planet s
 match ing
 help ers
 helmet s
 glow ed
 frost ing
 fold ing
 E l
ist en
ig gy
Somet imes
John ny
J ake
 yell ing
 week s
 swim s
 succeed ed
 smile y
 scr u
 sad ness
 s ides
 rele ased
 prett iest
 pengu ins
 no on
 neighb ors
 hug ging
 gather ing
 flag s
 d ot
 cobweb s
 B ree
 w id
 teac hes
 stick ing
 star ing
 spark les
 sc aring
 real ize
 hop s
 his sed
 he n
 g aze
 down stairs
 decid es
 cut s
 bucket s
 br ushed
 b are
 M ix
 Jen na
  X
z es
es ome
F r
 wonder ing
 where ver
 surround ed
 road s
 rainbow s
 pe ered
 paint ings
 horn s
 hard ly
 build ings
 Wh ist
 Th omas
 R emember
 Je ff
h o
all ow
S p
S illy
R ex
D uring
 we ighed
 strugg ling
 sees aw
 sc ooped
 ro bb
 resp ons
 l imes
 gr an
 good night
 cont ain
 clap s
 c ough
 bed time
 aw esome
 agre es
 act ually
 act ions
 M oon
 L ove
 L ou
 Fr ank
o ll
igg ie
am ie
a les
E x
D ucky
 splas hes
 sit u
 rad ishes
 pow ers
 load ed
 item s
 grand mother
 fork s
 fa ult
 di ving
 demand ed
 curi osity
 bo om
 balan cing
 apolog ized
le y
.. .
 to ss
 tal ent
 so ared
 shr ug
 repe ated
 poem s
 pencil s
 pat ience
 pack ing
 forg i
 fa sc
 cop y
 bu ses
 aw ake
 Le ave
 A va
l ier
ink le
an a
Wh iskers
R u
F o
 wigg led
 who se
 use s
 trave led
 rem oved
 ref res
 ph ot
 instruct ions
 drag ged
gu ing
ang ing
Gra ce
Ch irpy
 w ins
 t ugged
 sl am
 shiver ed
 roll s
 ro aring
 record ed
 part ies
 mov ies
 kick s
 home work
 ex a
 ear lier
 dri ves
 can s
 beg in
 bec oming
 Un cle
 M illy
 J u
 D izzy
 B iggie
y ou
us an
oy s
or a
o h
iv ity
M ar
 te ased
 scru bbed
 s ings
 protec ted
 pour ing
 pet ted
 pat ted
 mountain s
 mis ses
 la p
 inclu ded
 fasc in
 cur ly
 crab s
 comp any
 comf y
 bar s
 ar guing
 Z igzag
 Ste ve
 G r
 C hew
s ses
b ie
Tr ue
T oby
R ob
 wob bled
 sweet ies
 ste ady
 scream ing
 quarrel ing
 pocket s
 m aker
 compl ained
 be ard
 St op
 Jo sh
i bb
g ers
b l
am b
T iny
H arry
Ben ny
 tall est
 snake s
 rubb ing
 pray er
 pe as
 m a
 learn s
 gem s
 eag le
 draw s
 cudd le
 c aut
 bowl s
 an n
 Rob by
 H ippy
 B ecause
ust om
izz ie
St ay
F ine
 wr itten
 visit ing
 un ited
 th ird
 t im
 sun light
 se as
 ri p
 pro ject
 neighbour hood
 nap kins
 gran ted
 b unch
 W oof
 W atch
 J an
 B y
 B ark
” .
u ke
com pl
aff es
W atch
L una
 vehic les
 sw ooped
 so aring
 she lves
 ru in
 repl aced
 protec ting
 pr op
 pad d
 load ing
 l ily
 introd uc
 go als
 gir affes
 curtain s
 challen ge
 c ustom
 c ent
 c ash
 bare ly
 ac compl
 W oo
 W elcome
 Squ irrel
 C indy
 Bug gy
 A bbie
ue st
uck ily
u ly
n ies
at ie
P olly
A choo
 win ked
 pur red
 pige ons
 out do
 ornament s
 libr arian
 knight s
 got ten
 fair ies
 explore rs
 exam ined
 deliver ed
 complain ing
 blow s
 applaud ed
 add ing
 W ink
 Qu ack
ne ath
is dom
d am
P aul
 w ed
 tr uly
 ref le
 reach ing
 police man
 patient ly
 gl asses
 g uest
 fl utter
 exa ctly
 d ar
 ch at
 c ause
 Sk ip
 Qu ick
 P up
 How ever
 Fo xy
um m
l ay
f l
U h
S usie
P ete
J ames
 table s
 swe at
 spe aking
 pretend s
 poin ty
 per ched
 pen nies
 d ipped
 cra cked
 cir cus
 M e
 L ena
 Brown ie
f us
er n
H old
G eorge
E w
 was ted
 vide os
 us ual
 respons ible
 request ed
 rem ote
 prett ier
 pl enty
 phot os
 outdo ors
 on wards
 knock s
 keep er
 growl s
 ent ire
 cr umb
 close s
 ch anging
 cash ier
 batter ies
 b aker
 W ant
 K eep
s on
bb ing
ara way
am my
S ome
O ur
 you nger
 wear s
 w ound
 val ued
 v ines
 twirl ing
 team work
 tail s
 sp at
 prom ises
 log s
 fe ars
 f araway
 chirp ing
 camp ing
 Z oe
 T urtle
 S w
 S usan
 D ino
 Bl ink
um ble
uct antly
ll e
in t
av i
ar ter
ang led
ad os
P oppy
F or
Ch arlie
B unny
 yell s
 wed ding
 stay s
 snee zing
 sm arter
 pastel s
 kne es
 jo ked
 inv iting
 gigg ling
 fro ze
 f ir
 bow s
 F riends
   
ue en
s m
ro l
ol ine
j am
e ah
ag ull
Thank s
Sh h
Q ueen
M ike
?" ,
 wob b
 wait er
 vill ag
 tire s
 start led
 square s
 sol ut
 sat is
 pract icing
 lollipop s
 listen s
 knot s
 gun s
 d am
 bra nd
 avoc ados
 Z iggy
 Mix y
 Every day
w h
d ies
a ver
T ime
 your selves
 villag ers
 v ent
 under neath
 tr aded
 sunf lowers
 snow fl
 sight s
 scrat ches
 remind er
 pen s
 own ers
 on ions
 mask s
 m es
 ent r
 dest ination
 d ied
 cre ation
 cand ies
 ca used
 buzz ed
 bit ing
 W isdom
 Sp ring
 S orry
 P aws
 Ch loe
 B all
n ers
ind r
ind a
e ath
D og
Bu zz
.. ."
 were n
 towel s
 sp ong
 situ ation
 ra indr
 mushroom s
 man e
 m ast
 lung s
 li ed
 l amb
 hid es
 fir m
 fascin ated
 dolph ins
 cre pt
 ben eath
 air pl
 P o
 Mat t
 Ch r
 B ye
  1
la ire
g o
Un fortunately
T ina
O ut
 sto le
 sque al
 slam med
 rub s
 rel uctantly
 refle ction
 pupp et
 pass ing
 p out
 obser ved
 fig ured
 feed ing
 far ther
 e arn
 des er
 conf l
 achie ve
 Tw o
 T ree
 S ure
 R ay
 H ug
 F or
 Cat ty
 A nt
t uce
se ek
n joy
anna h
Z oom
B ad
 tim er
 supp lies
 superhero es
 sc oop
 sal ty
 ru ining
 resc ued
 pan s
 p ins
 need les
 ne ither
 light er
 let tuce
 introduc ed
 guy s
 firefight ers
 every day
 dec ision
 bur st
 b ank
 Tw inkle
 P am
 O ur
 M oo
  icing
th ough
ri ous
or ds
et sy
bl ings
Ro ar
P ipp
Gra ndpa
D ays
D ave
? '
 wander ing
 un f
 st ern
 solut ion
 si blings
 relie f
 growl ing
 forget s
 entr ance
 des ert
 dar ling
 crow d
 confl ict
 caut ious
 balan ced
 T ara
 L arry
 K ids
 J une
 F ish
y r
on ny
co at
ac ob
D oggy
Be ep
A n
 wrap s
 wr ist
 wire s
 twist ing
 tw ice
 toast er
 symbol s
 st ool
 sniff s
 se agull
 par ked
 lift ing
 h itting
 fill ing
 d a
 creat ing
 ch uck
 al ien
 L ion
 J ones
 J amie
 G et
  Queen
u zzy
ee se
ad s
ad ly
R un
P e
L illy
Ann ie
 wis hing
 un s
 t une
 t angled
 surf ace
 should ers
 robb er
 rest ored
 rain coat
 qu acked
 pad dle
 no ses
 how ever
 g eese
 do d
 cheer ing
 celebr ating
 bath s
 base ment
 bad ge
 back ward
 Un fortunately
 T ry
 R olly
u ing
t le
o dy
k y
it ely
h a
ess ica
c her
Y eah
 work ers
 un p
 trave ll
 swan s
 stum ble
 stom ped
 slow ed
 seek er
 rot ting
 rocket s
 re ason
 rain y
 prov ided
 lo sing
 lean ing
 le ast
 jo king
 instr um
 fu zzy
 dark ness
 cub es
 cont rol
 cl ick
 c rew
 b ak
 Sn ap
 Sh adow
 Prin cess
 M an
led ge
jam as
el ia
d ie
b u
at ur
are n
O ops
Jo ey
Dan ny
B ig
 twink le
 thu d
 spong e
 snow men
 sew ed
 sc ra
 read s
 pump kins
 play ers
 pee king
 path s
 pa jamas
 miss ion
 know ledge
 interest ed
 impro ved
 hon ked
 heal ed
 guess ing
 fore head
 fl ames
 dance s
 cover s
 accompl ish
 Miss y
 D uck
f it
ct ions
au ra
S unny
Ru by
M illy
M ay
Fo llow
C o
B ear
 vent ured
 scar ves
 refres hed
 out fit
 object s
 k ings
 itch y
 doll house
 d et
 cush ions
 com m
 bra very
 ag e
 To ot
 Snow man
 Bl inky
 B etsy
  
 
v in
st ick
ec ked
e ed
cu se
ad es
Tw eet
L ulu
J erry
G et
 � �
 w ow
 v owed
 us ually
 unt ie
 twink ling
 tick led
 talk s
 se ven
 sc ales
 s ense
 r usty
 r otten
 prep aring
 plan ning
 mon th
 gear s
 g ri
 crumb s
 cheek s
 ch ips
 buy ing
 bloom ing
 bl own
 beh avi
 bak ery
 airpl ane
 a st
 J ump
 I zzy
p ite
ibb it
ct ar
amp oline
Th ose
S n
S andy
R ose
K iki
G reat
Ex cuse
 unp acked
 tunnel s
 tr ampoline
 th orn
 slow er
 sc ored
 ro ses
 raindr ops
 r isk
 p ecked
 ne ctar
 lead ing
 inclu ding
 hesit ated
 grow s
 g le
 f reed
 dot s
 creat ivity
 conf ident
 competit ion
 color ed
 chef s
 ch oo
 be ads
 b umpy
 after wards
 Whist le
 Tweet y
 R ain
 N ut
 Bl oom
um bled
rr r
it ched
il o
ep t
c l
W hee
Qu ack
 t ying
 st ung
 some body
 s way
 reward ed
 remember ing
 prince sses
 not es
 n ine
 mar ked
 lift s
 fin s
 dire ctions
 dire ction
 decor ating
 beh aving
 begin ning
 act iv
 Y esterday
 S un
 Ru dy
 O ther
 L uke
 K ay
 Chew y
 C ow
 A dam
us hing
it i
e an
c used
ar th
L isten
A m
 tw enty
 sw ept
 squeal ed
 shr inking
 screw s
 satis fied
 recommend ed
 rec ipe
 pray ing
 perform ed
 lesson s
 groc er
 gre et
 fo cused
 fa ct
 chuck led
 cent er
 celebr ation
 c ous
 blin king
 av o
 achie ved
 Z ero
 Tr ust
 Th ose
 Ru fus
 Nut ty
 N ina
 K atie
 H olly
 Do do
 C ara
 Bark y
 B ones
 B irthday
z ie
ive s
is ies
ing o
in ch
im mer
b ric
ater ial
at ty
S ophie
B ill
 wob ble
 shovel s
 sh own
 sail ors
 race s
 r ust
 mus cle
 m aterial
 le ap
 gl ued
 flav or
 fa ced
 fa bric
 doctor s
 di ved
 danc ers
 dam age
 d ent
 custom er
 cl ues
 activ ities
 Woo ly
 W ise
 So f
 S c
 R ich
 M ouse
 M on
 L izzie
 E njoy
  Yes
ul ts
ul p
u zz
oph ia
o ssible
j o
f all
ce s
c ited
b ird
arm er
P enny
M oo
L uckily
L ike
 wobb ly
 wip es
 wigg ly
 warn ings
 unt ied
 t ies
 sw ords
 sp ins
 so bbed
 snowfl akes
 shap ed
 second s
 sc ur
 record ing
 que ens
 pupil s
 prin ting
 pres ses
 pass en
 part ic
 panc akes
 nightmare s
 necklace s
 label s
 insect s
 imp ossible
 hid er
 firef ly
 da isies
 d en
 curious ly
 bo dies
 block ing
 ann oy
 St ay
 Jul ia
 Good bye
 G ina
st ep
ri ver
ra in
ou ch
itc ase
er ing
b ut
air y
M aggie
B etty
 wip ing
 water ing
 uns ure
 sw irl
 su itcase
 str o
 spread ing
 shop s
 partic ular
 he av
 forget ting
 fe ast
 calm ed
 c ott
 bur row
 back wards
 ad ult
 Not hing
 M ira
 Jul ie
 J essie
 E arth
w k
v room
ust ed
s ie
re g
om b
o ey
ile s
id o
i ar
ho pper
br ush
ar on
ag ic
U nder
Cl ara
B aby
 y um
 wra pping
 wind y
 tip to
 t apped
 spr ang
 sn at
 scur ried
 rever sed
 r ushing
 quarrel ed
 prop erly
 pedal ed
 padd led
 o pp
 incre ased
 gen ie
 fire s
 fe ver
 expl o
 driver s
 cub s
 choice s
 bump s
 be aver
 arrow s
 ac he
 a ff
 Z ee
 Ro llie
 P lay
 L aura
 K it
 J oy
 H old
 F uzzy
 And rew
yr up
p s
or man
om p
n o
le ts
iver sity
ent ly
ence s
d river
atur day
ath an
an s
R ibbit
J azz
A b
 un w
 tight er
 suff ered
 sh oo
 s yrup
 ran ger
 r ising
 ple asure
 plan s
 perf orman
 pay ing
 panc ake
 nest s
 meal s
 matter s
 ma iled
 instrum ents
 ind eed
 haircut s
 gle e
 fl ipped
 end s
 complet ely
 clown s
 c oop
 S leep
 J essica
 F armer
� �
v y
ron aut
ro at
pt op
ob ody
l en
it ion
ig ers
id ing
ib i
h i
ed s
ch o
c oon
V room
T eddy
 zipp ing
 wor ries
 water fall
 trick y
 tri cycle
 touc hes
 to dd
 th roat
 t y
 swim mer
 supp orted
 stud ents
 star fish
 stand s
 screw driver
 ro pes
 relax ing
 po se
 pig gy
 la ptop
 hear ing
 gu ide
 grocer ies
 gra bbing
 forgi ven
 fl as
 ex ha
 encou rag
 e cho
 determ ination
 design ed
 cudd ly
 cautious ly
 b omb
 ast ronaut
 W o
 U p
 T iti
 S l
 S aturday
 R e
 Pe anut
 Pat ty
 P atch
 E x
 C udd
 Ann e
se qu
p rin
on nie
end y
M illie
H enry
 zebra s
 y elp
 worry ing
 tra ctor
 sweet s
 stro ked
 spike s
 sew ing
 send ing
 ro ds
 puzz led
 loop s
 job s
 int r
 his s
 ha wk
 garden er
 fl apping
 de al
 corn ers
 con sequ
 ch ar
 borrow ed
 accomplish ment
 On ly
 J illy
 J ay
 C ar
y ond
urt les
u de
st alk
ss y
r at
in nie
ill ed
ie ce
h ive
f ire
ell ow
d a
bb led
aw n
and as
an es
ad ing
Qu ick
Jo sh
B ow
Al ways
' ,
 weap ons
 thought s
 t urtles
 surpr ising
 surf board
 suffer ing
 squ aw
 spark s
 snat ched
 sign ed
 resp ond
 passen gers
 mind ed
 k ites
 imag ining
 guest s
 group s
 grass hopper
 frown ing
 exha usted
 discover ing
 d aring
 cous in
 count s
 consequ ences
 cold er
 ch op
 bit s
 bee hive
 bean stalk
 be yond
 be am
 T ake
 N ick
 M ad
 F ido
 E lle
 D ina
 C laire
 Am ber
us ing
pa ired
ong rat
ment s
itt ed
itc hes
iss ue
ion a
f ive
aff le
a e
W ake
Mr s
How ever
D ear
' ."
 van illa
 trem bled
 toss ed
 todd ler
 thr own
 t issue
 t ipped
 t igers
 sto pping
 st em
 sprink led
 so fter
 sing er
 shark s
 river s
 re paired
 rain s
 r umble
 pupp ies
 pout ed
 pl ain
 performan ce
 p andas
 mark ers
 magn if
 m er
 lay ing
 hot ter
 forgi ving
 f if
 duck ling
 con n
 bu dge
 St ella
 Rob ert
 Rob bie
 N ice
 J acob
 F airy
 Cra b
 C ut
 B op
 A ng
y es
y d
ver s
ugg les
u ppy
ter s
s a
rom ise
p en
os en
ongrat ul
og a
it ude
ild a
il ver
ell ie
co ver
ch ild
T ake
Sp ike
J ump
E llie
 wis ely
 wid er
 wid ened
 warm er
 tipto ed
 terri fied
 sto len
 sport s
 spit s
 slip s
 sing le
 sh ady
 robot s
 res pected
 pur r
 mes ses
 magic ian
 lend ing
 hope ful
 grand child
 grace fully
 freed om
 flutter ed
 figure s
 enthusia sm
 draw ers
 con c
 che cks
 ch osen
 camp fire
 brace lets
 With out
 Tweet ie
 S adly
 P ine
 P inch
 Co pper
 Ch ip
 B ibi
 Ab i
z oom
y ler
ud ience
t he
r ink
prin ts
p arent
ing er
immer ing
f ather
ert ie
atter ed
ara c
ab el
Z oomy
S low
O live
J an
Fr ank
B oys
 we pt
 unw ra
 twist s
 twink led
 tree house
 through out
 talent ed
 strong est
 stor ed
 st ain
 squ ish
 spill s
 sp ies
 scoot ers
 scold s
 ro ars
 regret ted
 re app
 r owed
 r ather
 pop s
 pill s
 pe ck
 n ood
 min ts
 l ower
 jacket s
 human s
 g ross
 firm ly
 firefight er
 encourag ing
 dri pping
 draw n
 deser ve
 cre ations
 country side
 colour ed
 che ers
 ch arac
 c oup
 c or
 bur nt
 am ount
 a udience
 T erry
 Sn uggles
 N obody
 N athan
 M atch
 Ju dy
 H enny
 H annah
 G ray
 F ire
 Cudd les
y a
v ant
u rious
th a
ret ty
m ine
ig ued
ig ning
h og
er g
e al
b and
ain t
T ony
L ola
H urry
D avid
Bu zzy
 wr ink
 strip s
 squish y
 sque ak
 sour ce
 separ ated
 sec ure
 sa n
 s ou
 resc uing
 ra ising
 play house
 ne are
 lip stick
 kitten s
 hedge hog
 hat es
 hall way
 grand parent
 e v
 dri fted
 de f
 coup le
 ant ic
 a imed
 Un iversity
 S ilver
 P r
 M ilo
 L inda
 Is n
 Do ctor
 As h
w orm
ver se
t w
re verse
op es
l iver
i el
ail s
Th omas
R ed
P at
M at
Do lly
Co co
B ack
A lex
 zoom s
 wor n
 with in
 whisp ers
 we e
 u nd
 te aring
 str oke
 store keeper
 smell ing
 slice s
 scra ped
 sc ri
 san k
 re ass
 pur rs
 po ster
 pinch ing
 p uff
 nervous ly
 n ur
 n apped
 material s
 magnet s
 m oo
 li es
 lead s
 kn ives
 join ing
 heav ier
 heal th
 greet ed
 film s
 f aded
 d ip
 cras hing
 clean er
 breat hed
 br ide
 bl ocked
 belie ving
 avo id
 am ong
 Z oey
 W ell
 W affle
 Spark y
 M ic
 K elly
 K aren
 G ertie
 G erry
 Ang el
 Am elia
 Al ong
pp ies
p r
oo sh
oll en
m ies
iz on
is ions
ip es
ip ation
ight ing
ient ist
i very
en ing
el ie
ce pt
ath y
ar get
a ven
Pipp in
Out side
Mar ia
K ate
B ee
B ang
A unt
? !"
 wr igg
 will ing
 wake s
 tw eet
 top s
 t arget
 sw ollen
 sw ap
 sw allow
 suit s
 st itches
 speed ing
 snee zes
 sl ither
 seas ons
 scatter ing
 sc ientist
 repe ating
 pe ep
 paint brush
 otter s
 langu ages
 hum ming
 hor izon
 h oo
 gri p
 grand father
 fl ip
 fit s
 fill s
 dod ged
 dec isions
 cross ing
 cream s
 cra cks
 cor re
 co sy
 cloud y
 brave st
 aw oke
 antic ipation
 W endy
 Su zie
 Rob o
 Chr ist
 Ch irp
 Be aky
 B ingo
we ed
umm ies
ulp ture
r ough
ous y
on na
n or
im on
ich a
icha el
er ate
art led
ack y
J ul
In stead
 wound s
 wh imp
 trust ing
 sweat y
 stud ent
 str oll
 sil ent
 sea weed
 sc ulpture
 ri pe
 rat s
 question ed
 purp ose
 punish ment
 pr ove
 pan icked
 nood les
 n uzz
 mind ing
 m unch
 lick ing
 jet s
 hunt ers
 h our
 grass y
 gigg les
 g onna
 flav ors
 fl ight
 fin al
 famil iar
 exper ien
 ev il
 envel opes
 enc ount
 doll ars
 d ie
 cow b
 comb ed
 ch anges
 bel oved
 bat hing
 as ide
 add s
 Sof ia
 R atty
 May a
 M ousy
 M el
 L isten
 D ay
 Cl oud
 Ch omp
 Bu bu
 An other
 A na
  2
un ched
umb ling
step s
pec ting
m atch
l ied
em ma
c c
be ep
bb a
b ell
arl ings
ab by
Sn ow
M ad
H op
Fin n
F riends
E ven
B essie
Al right
 war ri
 triang les
 temp er
 team s
 tap ed
 t ummies
 supp lied
 street s
 squee zing
 squee zes
 slipp ing
 short s
 shin ier
 rac coon
 pray ers
 pol itely
 po ses
 pl ug
 o cc
 neat ly
 mill er
 m ate
 jo ins
 intr igued
 in ches
 frown s
 foot steps
 fo cus
 flap s
 file s
 explain s
 experien ced
 exp ress
 every body
 door bell
 del ivery
 d arlings
 co nd
 ch ip
 c ert
 bel ts
 b orn
 b acked
 a is
 V room
 T re
 S ay
 Pinch y
 O lly
 N ear
 Ju dge
 John son
 G ary
 B rain
  5
y an
ud ged
u ess
t hest
ri ce
ren ch
pr il
ook y
ll as
ir ty
he l
ec ted
e en
dd ing
c row
bo ards
ang le
Z ip
Tw o
P ut
N ice
N ear
M o
Le ave
K im
Jo h
F ind
B o
B inky
Ab igail
 zigzag s
 yield ed
 yelp ed
 who ever
 umbre llas
 sweet est
 storm s
 sp ooky
 so da
 sm ashed
 simp ly
 shr unk
 ship s
 sheet s
 set s
 se als
 scare crow
 sa le
 rust ling
 p uck
 over come
 obey ed
 mom mies
 loud est
 l ent
 ignor ing
 hands ome
 gl itt
 foot prints
 far thest
 e lf
 crown s
 color ing
 chocol ates
 c ongratul
 band ages
 Y ellow
 Tr uck
 Sh are
 S ophia
 P uppy
 P h
 O kay
 Lou ise
 Jo anna
 J onny
 Hop s
 F ighting
 F e
 E va
 D ot
 C ord
 C le
 Bee f
ver al
m as
il ted
ib il
ear s
cover ed
at itude
ast y
T ry
T ed
S w
S peedy
Mom ma
M other
M ine
G uess
E lly
Ch loe
 warm ly
 wa king
 wa dd
 travell ing
 thorn s
 th irty
 tem pt
 surround ings
 stom p
 ste pping
 sque aky
 sp ed
 sh h
 sh all
 sell er
 se veral
 se vent
 sad der
 row s
 quiet er
 po ppies
 pl ucked
 picnic s
 p oop
 on ward
 near ly
 mer ma
 mast er
 mark er
 he ight
 hand ful
 h us
 gro an
 gr atitude
 fl ashed
 enjoy able
 encount ered
 dr own
 don key
 dis ob
 deliver ing
 delay ed
 de ars
 cover ing
 congratul ated
 con s
 ch arge
 behavi or
 beet les
 beep ed
 ban ged
 back s
 astronaut s
 are n
 appreci ation
 a im
 Z eb
 P uffy
 O xy
 Mar tha
 Jan et
 Gr umpy
 G low
 Ex cited
 El sa
 B umpy
 1 0
sh m
shm allow
ort un
ord inary
in ny
igg les
f ound
elie ve
el iable
c ope
bb ly
ay e
ast er
ar row
an ne
all owed
ab ly
Un cle
Tr ust
R ock
L ucky
C indy
C arl
B y
B ug
B oun
A bby
- -
 travell ed
 tid ied
 t uck
 swe ep
 sw allowed
 ste w
 st acked
 squ ir
 soap y
 sk unk
 siren s
 ser ving
 sc amp
 s ill
 pour s
 oy sters
 opp ortun
 occ as
 n in
 mo ons
 luck ily
 lo ses
 la ces
 hus band
 heel s
 heal ing
 head ing
 friendship s
 float s
 extra ordinary
 er ase
 encourage ment
 drive way
 do ves
 disturb ing
 dis c
 cudd les
 cryst als
 crow ded
 cream y
 cle ared
 brus hing
 br u
 bother ed
 bicy cles
 ben ches
 b less
 att ack
 angel s
 Z ippy
 U gly
 T ippy
 S ean
 P uff
 Mike y
 M ore
 M innie
 M ake
 M a
 L uc
 L enny
 Je an
 Jack ie
 Green y
 G reg
 E at
 Co zy
 Christ mas
 B oom
 All ie
  ill
ven ir
ur ricane
ri er
pp les
oun ced
or ing
or der
ll s
ke nd
it a
ic ate
f ly
ec c
ecc a
e vin
d aughter
an cy
al th
a a
S plash
R osie
R ay
Pipp a
M ira
L izzie
K eep
Good night
Fred dy
Fin ny
C ar
B rrr
 wrink led
 win ners
 whist les
 wee kend
 we eds
 we alth
 visit s
 unl o
 understand s
 test ed
 sun s
 sou venir
 snow y
 ser vant
 scamp ered
 robb ers
 respond ed
 refres hing
 ple aded
 perm itted
 no dding
 month s
 mix ture
 mes mer
 meow s
 mel ons
 mar shmallow
 kneel ing
 invit es
 insist ing
 guard ing
 grandparent s
 gaz ing
 fl own
 fif ty
 explore r
 effort s
 echo ed
 dry ing
 discuss ed
 dig s
 des pite
 dent ist
 dec l
 cra ft
 car ries
 bother ing
 bec omes
 basket s
 ar r
 Y oga
 Who ever
 W hee
 Tim e
 Thank s
 T yler
 T aking
 Rain bow
 Po or
 O liver
 Mar ie
 Jack y
 Fl oppy
 El iz
 C r
 C andy
 C D
 B onnie
yd ia
w ise
ust er
qu id
or king
on nor
on ies
o ver
k ids
ir ac
ile y
ig ger
ic orn
i ving
g gy
f reeze
et tle
es pite
e at
chie vous
ant a
am boo
ab ella
Wh ich
V ery
P lay
N ina
May a
J u
F l
Bird y
!” .
 wrigg led
 whisper ing
 was ting
 un icorn
 tub es
 tr ot
 tr ading
 tast ing
 t ilted
 swims uit
 sweat ers
 sw itched
 surrender ed
 stuff ing
 spell s
 sniff ing
 snap s
 sh immering
 sand y
 sa x
 risk s
 pot ion
 perform ing
 peep ed
 p ound
 over w
 offer ing
 nur ses
 new found
 mosquito es
 mo at
 mis chievous
 merma id
 magnif ying
 low ered
 long est
 lo cks
 li quid
 kind er
 inch worm
 in sp
 imag es
 hesit ant
 grand kids
 grand daughter
 go bbled
 glitter ing
 fix er
 exam ining
 eng ines
 earn ed
 des per
 demand ing
 d ump
 custom ers
 corre ctly
 cons id
 con vin
 comfort ing
 cloth s
 cert ain
 care s
 calm ly
 breat hing
 bl ushed
 belong ings
 bell s
 b amboo
 att em
 art ist
 admir ation
 act ivity
 act ion
 Y et
 Woo lly
 S ince
 Prin ty
 Or ange
 N ever
 Mom ma
 Me g
 M other
 L uckily
 K n
 K ip
 H urricane
 H oney
 F riend
 Every body
 C he
 Bo at
 B uster
 B ri
 A pril
� �
ugg ing
u nder
so l
ret ch
ra c
oth y
ot ch
on se
nn ie
m o
hel med
f orm
ell ing
ee k
e ve
dd ie
c at
ay la
T oo
S u
Pe ople
P andy
L iz
K ids
J amie
H oney
Be hind
B oth
B eth
After wards
 � �
 y umm
 treat ed
 tow ard
 than king
 test s
 t apping
 suggest ion
 stat ues
 spear s
 soon er
 smart est
 short cut
 shoo ed
 sc en
 resp onse
 res isted
 remind ing
 re wards
 prop er
 press ing
 present ed
 peace fully
 p onies
 overw helmed
 o dd
 number ed
 n ibb
 move ments
 mind s
 mate y
 mark ing
 man ners
 man ag
 m ood
 ha ird
 grand son
 gl obe
 fun n
 forgiven ess
 forest s
 for ce
 fle as
 flas hing
 firef lies
 f ant
 ex cept
 e ase
 dro pping
 doll ar
 do ck
 des igning
 decl ared
 de fe
 dan gers
 cour t
 cott on
 cop s
 co ach
 cl icked
 che at
 charac ters
 ch illy
 c oug
 br akes
 bl ast
 behavi our
 annoy ed
 al though
 ad ults
 act ive
 a ctor
 W ait
 Tom orrow
 St an
 Sam i
 S imon
 R eliable
 P ep
 N ana
 Mad die
 L ia
 L aser
 Jo jo
 Jen n
 I vy
 G oose
 Fl utter
 Fl ora
 Fl ick
 F aye
 Do es
 Dave y
 Chr is
 C oby
 C athy
 C ally
v or
tw o
sh adow
ress er
ra w
r ons
ott e
or ter
m ates
is ible
in itely
g ain
et s
em o
arl otte
al ph
T ara
R achel
P inky
No ah
N ick
L ena
K atie
H mm
G ogo
F ifi
B all
A bbie
! ’
 welc oming
 weigh s
 wadd led
 visit ors
 vi br
 travel s
 surf ing
 stream ers
 stamp ed
 sque aked
 squ inted
 spoon ful
 spill ing
 sp ice
 sleep s
 six ty
 shr ank
 sh orter
 sevent y
 sel f
 sax ophone
 sail s
 res ults
 re ly
 r umbling
 peel ed
 pay s
 padd ling
 ord ers
 nuzz led
 nin ety
 neare st
 must n
 inv isible
 haird resser
 for ty
 fo am
 fl ips
 fant astic
 fa ith
 explo ded
 experience s
 el bow
 eight y
 ed ges
 dream t
 display ed
 det ect
 destro ying
 d ate
 cowb oy
 count ries
 convin ced
 comm on
 comet s
 choo sing
 che ated
 chat ting
 char ity
 bus iness
 bra ins
 bl amed
 b itten
 aw are
 automobile s
 ar my
 ap rons
 annoy ing
 an ger
 ais le
 Wo lf
 T oys
 T ess
 Ste ven
 Sh ow
 Sh ark
 S anta
 Re ady
 R yan
 P ick
 Mar ch
 M ine
 M agic
 Jo dy
 I nd
 Help ing
 G inger
 F ly
 F iona
 D ull
 Cra bby
 B ang
 An imal
 Am anda
 Al though
wh ile
w ater
up ted
ug ar
u pt
nt il
le phant
iss ant
ick ing
i ens
ho le
erp iece
bar row
as mine
an while
am bled
a i
Some one
O pen
M ouse
M agic
L ou
J e
D r
D anger
C laire
And rew
 yumm iest
 wheel barrow
 wh ales
 web s
 uniform s
 ty pe
 tidy ing
 temper ature
 t umbled
 t in
 stern ly
 sn ug
 sn uck
 sn apping
 sk ies
 since re
 scratch ing
 scare s
 sc owl
 sandcast les
 remind s
 rec order
 prevent ed
 po sit
 plant ing
 own s
 old est
 nation s
 n asty
 meow ing
 mast erpiece
 m irac
 m iles
 m erry
 joy ful
 hand ing
 groan ed
 gas p
 garden s
 g oo
 forgive s
 floor s
 exerc ises
 door way
 disc ou
 def initely
 cur l
 cro issant
 cott age
 conn ect
 cl ue
 c oral
 buck les
 buck led
 bow ing
 bat tle
 bat hed
 b ully
 as s
 al iens
 add ress
 W illy
 Tw isty
 To oth
 O t
 N emo
 N elly
 N appy
 M int
 L oop
 J ason
 D usty
 D ee
 Bu bba
 Al i
up er
u el
re ya
p o
orn ado
me ow
j u
izz es
iss a
ipp er
int ment
in ct
imb o
im my
ig hing
ey ed
et ah
erg ic
er ts
ed ic
e w
cy cles
bb ling
b age
at ive
ac y
Z ara
T ree
Rob bie
Not hing
N G
H annah
E ach
A rrr
A dam
.' "
 yaw ning
 windows ill
 wh ines
 warri or
 travel ing
 tip s
 t ale
 support ing
 sty les
 structure s
 ste er
 squaw ked
 sol ving
 sneak s
 shrug s
 scr ambled
 sc urry
 r out
 quack s
 pri ck
 pl ot
 passport s
 p ipes
 moon light
 mess ed
 mesmer ized
 mean ing
 meadow s
 matt resses
 lo c
 leap t
 k illed
 jar s
 insp ired
 incre asing
 hor ri
 he aven
 hand les
 g est
 fin ishing
 fight s
 fan s
 drown ed
 dress er
 discou raged
 dess erts
 design s
 decor ation
 de ed
 cut ter
 cricket s
 coop erate
 cond ition
 con qu
 comm un
 cheer fully
 che etah
 ch ill
 ca using
 ca fe
 bury ing
 burn s
 breath s
 bra ver
 bo il
 bend s
 be ast
 b uddy
 attem pt
 answer ing
 all ergic
 aff ect
 accident s
 W inky
 Th rough
 T ammy
 Spark le
 Sm o
 S ugar
 R uff
 R ad
 Pr ince
 O h
 K evin
 Jane y
 Jan ie
 J on
 J elly
 Is abella
 Hug o
 F ork
 Che ss
 C urious
 C ari
 Be be
 Am i
 Al arm
 ' '
  ouch
  icky
year s
v as
v al
um ent
ull aby
th ree
th is
se ven
sc otch
s ix
re nt
ot s
on ed
o f
n ine
m ers
j est
it s
ist ory
im ent
ic ious
i bbles
f our
en ses
em ies
el ing
e ight
at y
ast a
an ny
an ced
ab eth
S adly
K aren
Je ff
J essie
J acob
G ot
F ire
E l
D eal
Blue y
Be ing
B r
 wh oosh
 water s
 w rench
 up side
 unpack ing
 unf air
 un fortunately
 to pp
 sway ed
 stret ches
 st un
 spo iling
 somet ime
 so ot
 so aking
 situ ations
 s ens
 run ner
 reapp eared
 re bu
 pri zes
 ple as
 pack ages
 opportun ity
 occas ion
 marshmallow s
 mar ve
 lunch time
 loyal ty
 light ly
 l ullaby
 l imp
 invit ations
 honk s
 hesit ation
 guard ian
 ghost s
 gest ure
 gas ps
 fore shadow
 farm ers
 f ries
 f aint
 enthusiastic ally
 en emies
 dri ft
 det ails
 de v
 d ing
 crack ers
 cop ied
 chew s
 cap s
 bur ger
 blue bird
 bl ush
 apolog ised
 ag es
 ab and
 Wo nder
 Whist ler
 T ia
 St artled
 Spot ty
 Sm oke
 She lly
 S ymbol
 S uper
 R oy
 R ita
 Play ing
 P ump
 P ig
 P en
 O p
 No ah
 N urse
 Man ny
 L o
 L aw
 Kay la
 G iant
 Fl o
 Fl ash
 Fish y
 F ast
 Dog s
 Co al
 Bl ack
 Be aver
 B ro
 B ell
wh at
ri b
ra p
r ily
or se
n is
l t
iv i
is app
in ter
h ile
et al
er k
ep eat
ent r
ch ief
b ank
ac ock
a ct
Tw inkle
Slow ly
S un
S it
S ince
Ru fus
P o
P h
On ly
Me anwhile
Mat t
Jack ie
Is n
I m
G row
Ex cited
Do es
C aw
Bu bbles
Ann e
, '
' ?"
!' "
 wobb ling
 wink s
 und one
 un able
 twirl s
 trot ted
 topp ings
 tong ues
 tick les
 thick er
 tea pot
 tal ents
 sweet er
 success fully
 ste ering
 spray s
 sp y
 sp arrow
 sn ort
 shin es
 seagull s
 scurry ing
 scoop s
 ro yal
 river bank
 rever sing
 return ing
 repair ing
 r ays
 qu izzes
 prob ably
 pol ar
 po ss
 play d
 pl ugged
 pe acock
 parrot s
 par ted
 p asses
 obser ving
 motor cycles
 map s
 m ashed
 lo lly
 listen er
 le ver
 le aking
 knock ing
 int ently
 hop scotch
 hoo ves
 honest y
 hon king
 hat ch
 gl ared
 flutter ing
 flas hes
 fin ishes
 fa iled
 explo de
 exp ert
 ex pecting
 disappo intment
 d ial
 cup c
 coug hed
 conc entr
 comput ers
 coll ap
 cl ips
 che ating
 chat ted
 cent re
 cam el
 beak s
 backpack s
 aw hile
 aunt ie
 appro ach
 appreci ated
 apolog y
 aff ord
 accompl ished
 aband oned
 Tre vor
 Th under
 T e
 See ing
 R uth
 R ina
 Mon ster
 Luc as
 L ydia
 L ung
 Jo h
 I ce
 G as
 Em my
 Dan iel
 D espite
 Cl imb
 Ch ick
 C ate
 But ton
 B ad
 Animal s
 A ny
 A aron
z ip
ul f
uit y
u um
t ock
ster ed
st orm
st and
sm elling
r um
r ant
p an
ook s
oo ke
mb ers
m s
le nd
it z
iron ment
ik y
igg le
ic i
ib ly
hee se
h an
han ie
gu ess
g ood
ep hanie
end ant
eb ecca
cut ter
cl oth
ck y
by es
be e
ap ing
ant rum
an i
amp le
ag ine
ac les
Z igzag
When ever
T erry
Sh rink
Sh ow
Sh ould
S ophia
S c
P retty
M ore
M ichael
Joh ny
Jen na
Fr og
E at
Cl imb
Ch ild
C atch
Boun ce
Bl ink
Ah oy
A lly
" !
 zip s
 wood cutter
 wigg ling
 we ighing
 vac uum
 trap s
 tr oll
 tr igger
 tool box
 thread s
 temp ted
 table cloth
 t antrum
 surf ed
 stomach s
 stain s
 st all
 sprink le
 spice s
 sp iky
 snowfl ake
 sm elt
 sh ave
 seas he
 scr ub
 sc ent
 rob in
 reward ing
 reapp ear
 real izes
 re un
 re port
 rat t
 prov iding
 pr ank
 poke s
 pilot s
 pedal ing
 off ers
 night s
 neighb ours
 musician s
 munch ing
 mom ma
 mess ier
 mess ages
 me mbers
 mat s
 m ac
 lean s
 key hole
 ju d
 j ugg
 intellig ence
 inst inct
 impro ving
 ho ver
 ho ses
 his sing
 head ache
 hang ers
 ha ven
 ha lves
 good byes
 gar bage
 g room
 for ts
 fold s
 fl ock
 fa cing
 f oggy
 ex ch
 ex ample
 env ironment
 dod ging
 discuss ing
 disappear ing
 d ou
 d ips
 d ice
 d ep
 d edic
 cro aked
 conqu ered
 conn ected
 con cer
 commun icate
 cl ut
 cl erk
 check out
 che aper
 bump ing
 build ers
 bounce s
 bird house
 beam ing
 ba a
 arg ument
 aeropl anes
 Z ane
 Y awn
 V ivi
 U se
 U ntil
 T ornado
 St retch
 S it
 S illy
 S ettle
 S e
 R ick
 P ops
 P l
 Ow ly
 M op
 M indy
 Look ing
 Liz a
 L i
 Jo sie
 J umpy
 J et
 Hug s
 Grace ful
 G irl
 Eliz abeth
 E ddie
 D illy
 D el
 Ch uck
 Cat s
 Br ad
 B arry
w is
v i
th s
s n
s he
ro ll
ri e
rac ted
r uct
os ite
ors ie
on i
o ff
n et
l o
it er
is c
ins ed
ing ly
id i
ic les
he lle
es se
d es
bo at
as ers
arl a
app le
ap tain
and ra
an ing
ad ie
ad a
V elvet
T illy
S m
P ip
N ever
L inda
Jul ie
F iona
Do ctor
Dan iel
D el
A nt
?” .
 wind s
 whimp ered
 wh ined
 vest s
 unwra pped
 unwra p
 under water
 un covered
 trust s
 th ump
 test ing
 teaspoon s
 t ugging
 swirl s
 sur v
 stri king
 squir ted
 spr out
 space s
 sp ades
 sl apping
 shy ly
 serious ly
 salad s
 rock y
 rip s
 ribb it
 repeat s
 rag s
 r insed
 quack ing
 prick ly
 poss ibil
 playd ate
 pig let
 pet ting
 pepper oni
 pain ful
 outfit s
 opp osite
 opin ions
 newsp apers
 mu stered
 mirac le
 marve led
 mail ing
 magaz ines
 m unched
 liz ards
 in ter
 hun ger
 his ses
 height s
 guit ars
 gra in
 good ness
 glitt ered
 freez ing
 fisher men
 fet ched
 fa il
 en emy
 dust pan
 dri pped
 dress ing
 disagree ing
 diamond s
 deser ves
 cup boards
 cre ak
 cr ops
 cost s
 clos ing
 class mates
 cir c
 cap es
 can vas
 buy s
 bush y
 bright est
 bright ened
 bra id
 bo nd
 bend ing
 bell ies
 barrel s
 b as
 aw ful
 art work
 arr anged
 ar rest
 alligator s
 af ar
 act s
 Wh ale
 W as
 V icky
 Tuesday s
 Truck ie
 T ip
 Sw immy
 Sunday s
 Smo key
 Ru de
 Quick ly
 P rice
 P retty
 Ot to
 O pen
 M ina
 L ife
 L and
 Jo anne
 In ky
 Hel en
 H urry
 G emma
 Flick er
 Fl ap
 F reya
 E ric
 E lephant
 Dot ty
 D in
 Cl ub
 Ch arlotte
 C ake
 But ter
 B ess
 B elieve
zz le
v ince
ust ache
ur render
st antly
sn ap
se ss
s sess
s ers
r ope
p hew
ous ly
os a
oo ly
m ill
m ered
lend a
ld y
l ings
keep ers
isc uit
isapp ear
is bee
ir ley
ir ing
ir i
ind ness
ide y
ic ers
g ra
et ch
el ope
ct ric
cream s
cess ary
c ie
boo s
ater ina
at s
art in
am ma
St ill
Somet hing
R abbit
Ow l
Mad die
M on
M ittens
M ilo
M any
L uke
Im agine
H ope
H E
G ina
D are
Ch oo
Am i
 zoo keepers
 wo lves
 wo ken
 wis er
 wh ipped
 wa ded
 visit or
 valu ing
 unf old
 ty pes
 tr ans
 tempt ing
 tap s
 tank s
 sw apped
 stomp ing
 stare s
 stack s
 squ ished
 slither ed
 sing ers
 share s
 sh aky
 sens ation
 send s
 seashe lls
 sail boat
 rot ted
 rebu ild
 reass ured
 r in
 pur ses
 proper ty
 pro cess
 pound ing
 possibil ities
 posit ive
 po ssess
 peel s
 peek s
 particular ly
 off icers
 notice s
 nibb led
 ne phew
 ne cks
 missile s
 meet s
 mass ages
 ma jest
 m ower
 m end
 low ers
 loc al
 ke en
 joy fully
 inst antly
 in vent
 imagination s
 ho st
 helicopter s
 h ob
 gr umbled
 gener osity
 funn iest
 fu rious
 fl uff
 fascin ating
 f ade
 exam s
 esc aping
 er asers
 emer ged
 ele ctric
 duck lings
 dry er
 dri p
 door step
 difference s
 deep ly
 dedic ation
 dam aged
 d umb
 crocodile s
 crawl s
 cont ained
 conc ert
 con vince
 compet ing
 compet e
 collap sed
 clean s
 chick s
 check ing
 challen ged
 cell s
 caut ion
 ca w
 c ages
 bu d
 bo ld
 b iscuit
 applaud ing
 ang rier
 Y ummy
 Y outh
 We st
 T oo
 T ears
 Sw eet
 Ste ak
 Sp inny
 S ink
 S chool
 Pump kin
 Po ison
 Ph il
 Pe ggy
 P romise
 Other wise
 N umber
 N ature
 M ustache
 M ichael
 M ath
 M ara
 M ag
 L es
 Just in
 J asmine
 I m
 H orsie
 H at
 Gra nd
 Friend ship
 Fred die
 Fr uity
 F un
 F le
 Dina h
 D rag
 Co coa
 Br ooke
 Bird s
 Aunt ie
 Ann abel
 1 2
  ic
y la
up id
un es
umb ly
ud re
udre y
s orry
row ave
re my
re ement
r or
p op
os cope
ort h
ord an
oc ular
o ss
n gest
m unk
les cope
le st
le o
l ine
ir cle
iff y
if er
id y
id ence
ic iest
hing s
h adow
gu ise
get ic
g ar
fa ction
f lowers
eth oscope
ent ial
e ze
d mother
d ers
col ored
cl ock
az y
at ted
at ic
as hes
ar ted
ar old
ar issa
ank y
am i
al ter
ac ing
Z oe
W ant
Th ree
T una
T oto
T ell
Su zy
St eve
Sn ap
Sh are
R uth
R ing
R ain
Mum ma
Mar ie
Liz a
J onny
I ce
G r
Fo xy
F reeze
C urious
B un
B oom
B aa
A ny
 you ngest
 wr iter
 wor st
 wind mill
 wild flowers
 wh iskers
 wh irl
 weak er
 was hes
 vine gar
 ve gg
 unlo ad
 un st
 tray s
 trans form
 tr im
 to sses
 tim id
 tight rope
 tick ling
 te lescope
 surv ive
 sure ly
 suggest s
 store s
 st ethoscope
 squaw k
 spring ing
 sp are
 soft ened
 so bbing
 snugg le
 sh allow
 scowl ed
 saw ed
 satis faction
 sa cks
 s us
 rid er
 real izing
 real ise
 raz ors
 r ink
 pra ise
 pr og
 post c
 po pping
 pleas ant
 pine apple
 peaceful ness
 park s
 pan icking
 palm s
 owl s
 over head
 orig ami
 obedient ly
 mind ful
 mic rowave
 luck iest
 lic enses
 le aped
 ladybug s
 l ump
 kind est
 kangaroo s
 jump er
 journey s
 inter r
 hum med
 hat ched
 harm ony
 hang s
 half way
 ha bit
 good ies
 go dmother
 glitt ery
 fr isbee
 four th
 for med
 for m
 fo nd
 fact s
 f ulf
 eyes hadow
 explain ing
 er upt
 em b
 ele ven
 eld ers
 disag reement
 dis guise
 detect ive
 desper ate
 desk s
 cr itter
 coo lest
 concer ned
 con vers
 comp ared
 coll ars
 cave s
 calm er
 c uc
 bulb s
 bu bbling
 band s
 attach ing
 att acked
 appl ause
 ann ounced
 am used
 actor s
 ac cess
 ab il
 ab ack
 Wh ite
 W orking
 W iggles
 Tom ato
 Te aspoon
 T ell
 St ephanie
 Sp icy
 Sl inky
 Sh irley
 S keleton
 S id
 R icky
 R ead
 R alph
 P ot
 P asta
 P aint
 Moon y
 Mat ilda
 Mag net
 M arian
 M amma
 Lo llie
 Li bby
 L ayla
 K indness
 J etty
 J emma
 J ellie
 He llo
 H al
 G illy
 G ill
 Fr ance
 Flo ssy
 Fl op
 F unny
 F ix
 F ind
 D ora
 Cle aning
 Cl arissa
 C ross
 C ici
 C ars
 C are
 Br ush
 Bob ble
 Bo xy
 B un
 B ert
 A r
zz ly
y le
wel come
w ar
vent ure
ut ely
ush room
us ic
u ses
u bb
te en
sp ell
sol utely
ruct ion
ro y
ri zzle
r ob
r is
que eze
que ak
po ison
pe ed
p oke
our ed
ou qu
osaur us
ocular s
o ot
o ard
ld erly
l or
l ish
j ust
iz er
ila h
if ully
ibil ity
he el
gra ndma
gg les
f ree
ever se
erg us
er ms
er cy
ell e
el ve
e ven
d venture
ber t
b ang
as ured
aron i
ap s
and le
and el
al ia
ab elle
a fe
Wh ist
St artled
Snow y
S queaky
S qu
S ay
Rob by
Play ing
P apa
O ver
Mad dy
M ix
L izzy
K ing
Ju dy
Joh nnie
Jan ie
J essica
G reg
Fo x
F uzzy
Every thing
E njoy
Dave y
D ino
Ch icky
C onnor
As h
Am ber
Al though
A va
: "
 wra pper
 warm ed
 w ig
 vegg ies
 tw itched
 tw elve
 tre asured
 thunder storm
 thumb s
 tempt ation
 surround ing
 stri ped
 speak s
 snort s
 sleep over
 sk irts
 sh attered
 sh aken
 scen e
 sc re
 sa v
 s uck
 s ite
 ru by
 ro be
 rin se
