{
  "0": "\u0000",
  "1": "\u0001",
  "2": "\u0002",
  "3": "\u0003",
  "4": "\u0004",
  "5": "\u0005",
  "6": "\u0006",
  "7": "\u0007",
  "8": "\b",
  "9": "\t",
  "10": "\n",
  "11": "\u000b",
  "12": "\f",
  "13": "\r",
  "14": "\u000e",
  "15": "\u000f",
  "16": "\u0010",
  "17": "\u0011",
  "18": "\u0012",
  "19": "\u0013",
  "20": "\u0014",
  "21": "\u0015",
  "22": "\u0016",
  "23": "\u0017",
  "24": "\u0018",
  "25": "\u0019",
  "26": "\u001a",
  "27": "\u001b",
  "28": "\u001c",
  "29": "\u001d",
  "30": "\u001e",
  "31": "\u001f",
  "32": " ",
  "33": "!",
  "34": "\"",
  "35": "#",
  "36": "$",
  "37": "%",
  "38": "&",
  "39": "'",
  "40": "(",
  "41": ")",
  "42": "*",
  "43": "+",
  "44": ",",
  "45": "-",
  "46": ".",
  "47": "/",
  "48": "0",
  "49": "1",
  "50": "2",
  "51": "3",
  "52": "4",
  "53": "5",
  "54": "6",
  "55": "7",
  "56": "8",
  "57": "9",
  "58": ":",
  "59": ";",
  "60": "<",
  "61": "=",
  "62": ">",
  "63": "?",
  "64": "@",
  "65": "A",
  "66": "B",
  "67": "C",
  "68": "D",
  "69": "E",
  "70": "F",
  "71": "G",
  "72": "H",
  "73": "I",
  "74": "J",
  "75": "K",
  "76": "L",
  "77": "M",
  "78": "N",
  "79": "O",
  "80": "P",
  "81": "Q",
  "82": "R",
  "83": "S",
  "84": "T",
  "85": "U",
  "86": "V",
  "87": "W",
  "88": "X",
  "89": "Y",
  "90": "Z",
  "91": "[",
  "92": "\\",
  "93": "]",
  "94": "^",
  "95": "_",
  "96": "`",
  "97": "a",
  "98": "b",
  "99": "c",
  "100": "d",
  "101": "e",
  "102": "f",
  "103": "g",
  "104": "h",
  "105": "i",
  "106": "j",
  "107": "k",
  "108": "l",
  "109": "m",
  "110": "n",
  "111": "o",
  "112": "p",
  "113": "q",
  "114": "r",
  "115": "s",
  "116": "t",
  "117": "u",
  "118": "v",
  "119": "w",
  "120": "x",
  "121": "y",
  "122": "z",
  "123": "{",
  "124": "|",
  "125": "}",
  "126": "~",
  "127": "",
  "128": "�",
  "129": "�",
  "130": "�",
  "131": "�",
  "132": "�",
  "133": "�",
  "134": "�",
  "135": "�",
  "136": "�",
  "137": "�",
  "138": "�",
  "139": "�",
  "140": "�",
  "141": "�",
  "142": "�",
  "143": "�",
  "144": "�",
  "145": "�",
  "146": "�",
  "147": "�",
  "148": "�",
  "149": "�",
  "150": "�",
  "151": "�",
  "152": "�",
  "153": "�",
  "154": "�",
  "155": "�",
  "156": "�",
  "157": "�",
  "158": "�",
  "159": "�",
  "160": "�",
  "161": "�",
  "162": "�",
  "163": "�",
  "164": "�",
  "165": "�",
  "166": "�",
  "167": "�",
  "168": "�",
  "169": "�",
  "170": "�",
  "171": "�",
  "172": "�",
  "173": "�",
  "174": "�",
  "175": "�",
  "176": "�",
  "177": "�",
  "178": "�",
  "179": "�",
  "180": "�",
  "181": "�",
  "182": "�",
  "183": "�",
  "184": "�",
  "185": "�",
  "186": "�",
  "187": "�",
  "188": "�",
  "189": "�",
  "190": "�",
  "191": "�",
  "192": "�",
  "193": "�",
  "194": "�",
  "195": "�",
  "196": "�",
  "197": "�",
  "198": "�",
  "199": "�",
  "200": "�",
  "201": "�",
  "202": "�",
  "203": "�",
  "204": "�",
  "205": "�",
  "206": "�",
  "207": "�",
  "208": "�",
  "209": "�",
  "210": "�",
  "211": "�",
  "212": "�",
  "213": "�",
  "214": "�",
  "215": "�",
  "216": "�",
  "217": "�",
  "218": "�",
  "219": "�",
  "220": "�",
  "221": "�",
  "222": "�",
  "223": "�",
  "224": "�",
  "225": "�",
  "226": "�",
  "227": "�",
  "228": "�",
  "229": "�",
  "230": "�",
  "231": "�",
  "232": "�",
  "233": "�",
  "234": "�",
  "235": "�",
  "236": "�",
  "237": "�",
  "238": "�",
  "239": "�",
  "240": "�",
  "241": "�",
  "242": "�",
  "243": "�",
  "244": "�",
  "245": "�",
  "246": "�",
  "247": "�",
  "248": "�",
  "249": "�",
  "250": "�",
  "251": "�",
  "252": "�",
  "253": "�",
  "254": "�",
  "255": "�",
  "256": "<|endoftext|>",
  "257": " t",
  "258": "he",
  "259": " a",
  "260": " s",
  "261": " w",
  "262": "nd",
  "263": " the",
  "264": "ed",
  "265": " b",
  "266": " to",
  "267": " and",
  "268": " h",
  "269": " f",
  "270": "in",
  "271": " T",
  "272": " wa",
  "273": "re",
  "274": "it",
  "275": "ou",
  "276": " l",
  "277": " d",
  "278": " c",
  "279": " p",
  "280": "ay",
  "281": " m",
  "282": "er",
  "283": " was",
  "284": "om",
  "285": " The",
  "286": " he",
  "287": "is",
  "288": "ar",
  "289": " n",
  "290": "im",
  "291": "on",
  "292": " sa",
  "293": "id",
  "294": "ll",
  "295": " ha",
  "296": " g",
  "297": "at",
  "298": "ing",
  "299": " S",
  "300": "ot",
  "301": "en",
  "302": "an",
  "303": "le",
  "304": "or",
  "305": "ir",
  "306": "am",
  "307": "et",
  "308": " H",
  "309": " it",
  "310": " th",
  "311": "ig",
  "312": " They",
  "313": " in",
  "314": "il",
  "315": " pl",
  "316": " He",
  "317": " \"",
  "318": "ow",
  "319": "ver",
  "320": "ri",
  "321": "ut",
  "322": " be",
  "323": " u",
  "324": " said",
  "325": " play",
  "326": "ith",
  "327": " day",
  "328": "pp",
  "329": " with",
  "330": "On",
  "331": " y",
  "332": " o",
  "333": "oo",
  "334": " r",
  "335": "ked",
  "336": "ce",
  "337": " I",
  "338": " her",
  "339": "ld",
  "340": " She",
  "341": " Tim",
  "342": " his",
  "343": " st",
  "344": "ke",
  "345": " e",
  "346": " big",
  "347": "nt",
  "348": "ck",
  "349": " you",
  "350": "very",
  "351": "st",
  "352": "ve",
  "353": "end",
  "354": "un",
  "355": " on",
  "356": " happ",
  "357": "riend",
  "358": " friend",
  "359": "all",
  "360": "ily",
  "361": " they",
  "362": " L",
  "363": " we",
  "364": " had",
  "365": " up",
  "366": " not",
  "367": " want",
  "368": "her",
  "369": " li",
  "370": " of",
  "371": "ad",
  "372": " B",
  "373": "itt",
  "374": "se",
  "375": " do",
  "376": " happy",
  "377": " M",
  "378": " very",
  "379": "es",
  "380": "ent",
  "381": " that",
  "382": " saw",
  "383": "'s",
  "384": "One",
  "385": "ould",
  "386": " for",
  "387": " sh",
  "388": " mom",
  "389": "ittle",
  "390": " so",
  "391": " little",
  "392": " she",
  "393": "ime",
  "394": ".\"",
  "395": " ne",
  "396": " nam",
  "397": " time",
  "398": "ch",
  "399": "ound",
  "400": " k",
  "401": " there",
  "402": " named",
  "403": " sm",
  "404": " were",
  "405": " Lily",
  "406": " bo",
  "407": " wanted",
  "408": " friends",
  "409": " but",
  "410": "out",
  "411": "The",
  "412": "!\"",
  "413": "ved",
  "414": "ht",
  "415": "ird",
  "416": " Tom",
  "417": "el",
  "418": " bird",
  "419": "ake",
  "420": "al",
  "421": " an",
  "422": "ome",
  "423": " It",
  "424": " too",
  "425": "ug",
  "426": "ide",
  "427": " went",
  "428": " wh",
  "429": "Once",
  "430": " hel",
  "431": "ue",
  "432": " is",
  "433": " all",
  "434": " help",
  "435": " loo",
  "436": " lo",
  "437": "ry",
  "438": " upon",
  "439": " A",
  "440": "ter",
  "441": "ore",
  "442": " fun",
  "443": "ind",
  "444": "ill",
  "445": "get",
  "446": "ame",
  "447": " toy",
  "448": " as",
  "449": " j",
  "450": " did",
  "451": " at",
  "452": "ra",
  "453": "gether",
  "454": "ur",
  "455": " re",
  "456": " se",
  "457": " together",
  "458": "ack",
  "459": " cat",
  "460": " tre",
  "461": "ly",
  "462": "ood",
  "463": "ic",
  "464": "ted",
  "465": " dog",
  "466": " could",
  "467": " can",
  "468": " their",
  "469": "ark",
  "470": "ard",
  "471": "ec",
  "472": " ball",
  "473": " played",
  "474": " him",
  "475": "irl",
  "476": "way",
  "477": "?\"",
  "478": " go",
  "479": " girl",
  "480": "my",
  "481": " ro",
  "482": "hed",
  "483": "ain",
  "484": " are",
  "485": " out",
  "486": "'t",
  "487": " le",
  "488": " kn",
  "489": "hen",
  "490": "ax",
  "491": " fr",
  "492": " them",
  "493": "um",
  "494": " sad",
  "495": " tree",
  "496": "ul",
  "497": " boy",
  "498": " have",
  "499": " cl",
  "500": "other",
  "501": " man",
  "502": " loved",
  "503": "oug",
  "504": " found",
  "505": " looked",
  "506": " sp",
  "507": " star",
  "508": " Sue",
  "509": "one",
  "510": "hing",
  "511": " Max",
  "512": " back",
  "513": " sc",
  "514": "own",
  "515": " like",
  "516": "are",
  "517": " me",
  "518": "ful",
  "519": "side",
  "520": " bec",
  "521": " park",
  "522": "ight",
  "523": " car",
  "524": "ong",
  "525": "elt",
  "526": " One",
  "527": " liked",
  "528": " would",
  "529": "op",
  "530": "round",
  "531": " la",
  "532": " fa",
  "533": " make",
  "534": " felt",
  "535": "You",
  "536": " see",
  "537": " W",
  "538": "omet",
  "539": " But",
  "540": "ell",
  "541": " no",
  "542": "ouse",
  "543": " asked",
  "544": " Ben",
  "545": " new",
  "546": " started",
  "547": "ag",
  "548": "ice",
  "549": " came",
  "550": "ared",
  "551": " al",
  "552": " Sam",
  "553": "ought",
  "554": " other",
  "555": "iled",
  "556": " somet",
  "557": " ag",
  "558": " good",
  "559": " small",
  "560": "ss",
  "561": " say",
  "562": " br",
  "563": " smiled",
  "564": "ob",
  "565": "ade",
  "566": "ings",
  "567": "ried",
  "568": "pot",
  "569": " ex",
  "570": " away",
  "571": "ty",
  "572": " find",
  "573": " wor",
  "574": " something",
  "575": " put",
  "576": " what",
  "577": " made",
  "578": " thought",
  "579": "ened",
  "580": " co",
  "581": " home",
  "582": " from",
  "583": " playing",
  "584": "ia",
  "585": " wal",
  "586": "ook",
  "587": " every",
  "588": " mu",
  "589": " ran",
  "590": "ach",
  "591": " Spot",
  "592": " J",
  "593": "arn",
  "594": " F",
  "595": "uc",
  "596": "ile",
  "597": " some",
  "598": "ie",
  "599": " again",
  "600": "dd",
  "601": " down",
  "602": "ny",
  "603": "ave",
  "604": " house",
  "605": "ure",
  "606": "king",
  "607": " laug",
  "608": " fl",
  "609": " scared",
  "610": "ep",
  "611": " took",
  "612": " pr",
  "613": "ick",
  "614": "ab",
  "615": "if",
  "616": " box",
  "617": " You",
  "618": " learn",
  "619": "ret",
  "620": " will",
  "621": " around",
  "622": " things",
  "623": " toys",
  "624": "ish",
  "625": " bl",
  "626": " my",
  "627": "oud",
  "628": "uck",
  "629": " sun",
  "630": " your",
  "631": " then",
  "632": " when",
  "633": " lived",
  "634": " fe",
  "635": ",\"",
  "636": " sw",
  "637": "pped",
  "638": "as",
  "639": " ch",
  "640": " ab",
  "641": "ank",
  "642": "us",
  "643": "oth",
  "644": "Tim",
  "645": "ap",
  "646": " get",
  "647": " Mia",
  "648": " lot",
  "649": "ump",
  "650": "Th",
  "651": "ist",
  "652": "ited",
  "653": " know",
  "654": " says",
  "655": "ust",
  "656": " got",
  "657": " tried",
  "658": "ucy",
  "659": " who",
  "660": " kne",
  "661": "nder",
  "662": " many",
  "663": " int",
  "664": " pret",
  "665": " about",
  "666": "Lily",
  "667": " any",
  "668": "ise",
  "669": " D",
  "670": " dec",
  "671": "ive",
  "672": " pic",
  "673": " red",
  "674": "qu",
  "675": " more",
  "676": " knew",
  "677": "ace",
  "678": "ous",
  "679": " hug",
  "680": " po",
  "681": "ally",
  "682": " care",
  "683": " v",
  "684": "urp",
  "685": " water",
  "686": " best",
  "687": "au",
  "688": " exc",
  "689": " became",
  "690": " learned",
  "691": "fter",
  "692": "�",
  "693": "ways",
  "694": " op",
  "695": " gre",
  "696": "ause",
  "697": " Lucy",
  "698": " Bob",
  "699": " outside",
  "700": " always",
  "701": " look",
  "702": " laughed",
  "703": " un",
  "704": " show",
  "705": " ho",
  "706": " Mom",
  "707": " decid",
  "708": "ant",
  "709": " both",
  "710": " eat",
  "711": " So",
  "712": " decided",
  "713": " because",
  "714": " room",
  "715": " into",
  "716": "ers",
  "717": " And",
  "718": "fe",
  "719": "ite",
  "720": " jump",
  "721": "udd",
  "722": "nn",
  "723": " pe",
  "724": " ke",
  "725": "They",
  "726": " this",
  "727": " excited",
  "728": " dad",
  "729": " one",
  "730": " fast",
  "731": " run",
  "732": " nice",
  "733": " E",
  "734": "Yes",
  "735": " feel",
  "736": "urpr",
  "737": " long",
  "738": "Tom",
  "739": " surpr",
  "740": " tr",
  "741": " told",
  "742": "our",
  "743": " am",
  "744": " sk",
  "745": "iny",
  "746": "ink",
  "747": "ull",
  "748": " pretty",
  "749": " inside",
  "750": " sl",
  "751": " mo",
  "752": " sor",
  "753": " gra",
  "754": "nna",
  "755": " take",
  "756": "Wh",
  "757": " rock",
  "758": " each",
  "759": "lew",
  "760": " much",
  "761": " gave",
  "762": " str",
  "763": "ged",
  "764": " how",
  "765": " need",
  "766": " than",
  "767": "But",
  "768": "ven",
  "769": "og",
  "770": " or",
  "771": "imal",
  "772": " animal",
  "773": " C",
  "774": " tow",
  "775": "ara",
  "776": " under",
  "777": " sorry",
  "778": " let",
  "779": " old",
  "780": "ge",
  "781": " bear",
  "782": "ess",
  "783": "ised",
  "784": "urt",
  "785": "ro",
  "786": " clo",
  "787": " fish",
  "788": " walked",
  "789": "ast",
  "790": "ase",
  "791": " hand",
  "792": "and",
  "793": "urn",
  "794": " cle",
  "795": "ft",
  "796": " flow",
  "797": " just",
  "798": " kind",
  "799": " didn",
  "800": "here",
  "801": " food",
  "802": " happened",
  "803": " His",
  "804": " wat",
  "805": "pl",
  "806": " We",
  "807": "ff",
  "808": "rom",
  "809": " ide",
  "810": "ched",
  "811": " try",
  "812": " hig",
  "813": " te",
  "814": " fi",
  "815": " list",
  "816": "ine",
  "817": " sky",
  "818": " sn",
  "819": " bet",
  "820": " animals",
  "821": " idea",
  "822": " near",
  "823": "ving",
  "824": " its",
  "825": " tw",
  "826": " us",
  "827": " bug",
  "828": "gry",
  "829": " heard",
  "830": " better",
  "831": "able",
  "832": "pec",
  "833": " en",
  "834": " share",
  "835": " Th",
  "836": "ate",
  "837": " if",
  "838": " stor",
  "839": " Amy",
  "840": "ex",
  "841": "Thank",
  "842": "Mom",
  "843": " careful",
  "844": " dan",
  "845": " fly",
  "846": " com",
  "847": "ial",
  "848": " flew",
  "849": "lf",
  "850": " spec",
  "851": " special",
  "852": " lots",
  "853": "more",
  "854": " anymore",
  "855": " fo",
  "856": "ion",
  "857": " never",
  "858": " by",
  "859": "ream",
  "860": " don",
  "861": " shiny",
  "862": " gr",
  "863": " even",
  "864": " end",
  "865": " wind",
  "866": " love",
  "867": "\n\n",
  "868": " tal",
  "869": " fore",
  "870": " Then",
  "871": "ak",
  "872": " mag",
  "873": "ort",
  "874": "bb",
  "875": "udden",
  "876": "rm",
  "877": " bu",
  "878": "imb",
  "879": " Anna",
  "880": " cake",
  "881": " col",
  "882": " clean",
  "883": " turn",
  "884": " book",
  "885": " over",
  "886": " climb",
  "887": " hard",
  "888": " Every",
  "889": " bad",
  "890": "uddenly",
  "891": "pected",
  "892": "ople",
  "893": "Let",
  "894": " surprised",
  "895": " high",
  "896": " hurt",
  "897": " come",
  "898": " fam",
  "899": " after",
  "900": "'m",
  "901": " way",
  "902": " picked",
  "903": " door",
  "904": " proud",
  "905": " gl",
  "906": "ber",
  "907": "expected",
  "908": " unexpected",
  "909": " cu",
  "910": " ground",
  "911": " safe",
  "912": "ady",
  "913": " che",
  "914": " opened",
  "915": " loud",
  "916": " im",
  "917": "arden",
  "918": " garden",
  "919": " thanked",
  "920": " give",
  "921": " color",
  "922": "As",
  "923": " From",
  "924": " hugged",
  "925": " people",
  "926": " still",
  "927": "ail",
  "928": "ild",
  "929": " ever",
  "930": " blue",
  "931": "No",
  "932": " call",
  "933": " far",
  "934": "iz",
  "935": " When",
  "936": " K",
  "937": "ummy",
  "938": " Her",
  "939": " off",
  "940": " magic",
  "941": "ough",
  "942": " Sara",
  "943": "ool",
  "944": " qu",
  "945": "les",
  "946": "ip",
  "947": " jumped",
  "948": "ture",
  "949": " walk",
  "950": " kid",
  "951": " smile",
  "952": " family",
  "953": "kay",
  "954": "uff",
  "955": " par",
  "956": "age",
  "957": " should",
  "958": " stay",
  "959": " In",
  "960": "hes",
  "961": " great",
  "962": " forest",
  "963": "em",
  "964": " squ",
  "965": " sto",
  "966": " now",
  "967": "aut",
  "968": " place",
  "969": " strong",
  "970": "ning",
  "971": " bra",
  "972": " P",
  "973": "oon",
  "974": " unt",
  "975": "itty",
  "976": "ct",
  "977": " beaut",
  "978": "unny",
  "979": "lease",
  "980": "dy",
  "981": "xt",
  "982": " picture",
  "983": "ane",
  "984": " stick",
  "985": " next",
  "986": "aking",
  "987": "be",
  "988": " until",
  "989": "rel",
  "990": " story",
  "991": " happily",
  "992": " kids",
  "993": " bro",
  "994": "oy",
  "995": " rain",
  "996": "iful",
  "997": " clos",
  "998": " beautiful",
  "999": " app",
  "1000": " imp",
  "1001": " listen",
  "1002": " while",
  "1003": " frog",
  "1004": " showed",
  "1005": " tra",
  "1006": " town",
  "1007": " helped",
  "1008": " everyone",
  "1009": "ies",
  "1010": "pt",
  "1011": "th",
  "1012": "ree",
  "1013": "It",
  "1014": " being",
  "1015": " met",
  "1016": " mor",
  "1017": "Now",
  "1018": "ress",
  "1019": " game",
  "1020": " truck",
  "1021": " hat",
  "1022": " wo",
  "1023": " called",
  "1024": " stopped",
  "1025": " ad",
  "1026": " rem",
  "1027": " dra",
  "1028": "uffy",
  "1029": "by",
  "1030": " mouse",
  "1031": "Can",
  "1032": " cry",
  "1033": "He",
  "1034": "When",
  "1035": " soft",
  "1036": " yummy",
  "1037": " open",
  "1038": " boat",
  "1039": " bed",
  "1040": " watch",
  "1041": " keep",
  "1042": " angry",
  "1043": " Let",
  "1044": " Wh",
  "1045": " doll",
  "1046": "vent",
  "1047": "ger",
  "1048": "ary",
  "1049": "bit",
  "1050": " flowers",
  "1051": "abbit",
  "1052": " Sally",
  "1053": "so",
  "1054": " brave",
  "1055": "ished",
  "1056": "dded",
  "1057": " ate",
  "1058": "gan",
  "1059": " also",
  "1060": " couldn",
  "1061": " R",
  "1062": " Kitty",
  "1063": " leave",
  "1064": " green",
  "1065": " de",
  "1066": "fore",
  "1067": " lost",
  "1068": " warm",
  "1069": " slide",
  "1070": " rabbit",
  "1071": " fell",
  "1072": " noise",
  "1073": "iss",
  "1074": " where",
  "1075": "irst",
  "1076": "irrel",
  "1077": " face",
  "1078": "What",
  "1079": "self",
  "1080": "ble",
  "1081": " squirrel",
  "1082": "ock",
  "1083": " two",
  "1084": " hear",
  "1085": "luffy",
  "1086": " soon",
  "1087": "illy",
  "1088": "az",
  "1089": " hole",
  "1090": "ired",
  "1091": "ma",
  "1092": " pus",
  "1093": "Hi",
  "1094": "owl",
  "1095": "leep",
  "1096": " pain",
  "1097": " before",
  "1098": " hands",
  "1099": " sat",
  "1100": " nodded",
  "1101": "Ben",
  "1102": "Look",
  "1103": "“",
  "1104": "Then",
  "1105": " kept",
  "1106": " expl",
  "1107": "”",
  "1108": "ear",
  "1109": "That",
  "1110": " pa",
  "1111": " fin",
  "1112": "aybe",
  "1113": " ey",
  "1114": " bre",
  "1115": "day",
  "1116": " birds",
  "1117": " use",
  "1118": " cook",
  "1119": " catch",
  "1120": " having",
  "1121": " bunny",
  "1122": " funny",
  "1123": " going",
  "1124": "ange",
  "1125": " Fluffy",
  "1126": "thing",
  "1127": " Now",
  "1128": " has",
  "1129": " tired",
  "1130": " store",
  "1131": " think",
  "1132": " looking",
  "1133": " wr",
  "1134": " sunny",
  "1135": " pond",
  "1136": " sound",
  "1137": " fix",
  "1138": " thr",
  "1139": " our",
  "1140": " yell",
  "1141": " used",
  "1142": "uch",
  "1143": " sing",
  "1144": " mean",
  "1145": " work",
  "1146": " beh",
  "1147": "We",
  "1148": " cra",
  "1149": " mommy",
  "1150": " Can",
  "1151": "itc",
  "1152": " others",
  "1153": "joy",
  "1154": "ting",
  "1155": " bus",
  "1156": " eyes",
  "1157": " wait",
  "1158": " head",
  "1159": " jo",
  "1160": "ember",
  "1161": "aug",
  "1162": " ask",
  "1163": "aught",
  "1164": " tri",
  "1165": "rew",
  "1166": " pull",
  "1167": "itchen",
  "1168": " kitchen",
  "1169": "air",
  "1170": " vo",
  "1171": " dr",
  "1172": " talk",
  "1173": " fav",
  "1174": "ello",
  "1175": "Hello",
  "1176": " flo",
  "1177": " Jack",
  "1178": " first",
  "1179": "uit",
  "1180": " enjoy",
  "1181": " dif",
  "1182": " Jo",
  "1183": " right",
  "1184": " G",
  "1185": " hill",
  "1186": " race",
  "1187": " flower",
  "1188": "ng",
  "1189": " sleep",
  "1190": " party",
  "1191": "orn",
  "1192": "ious",
  "1193": "zy",
  "1194": " mess",
  "1195": " bright",
  "1196": " import",
  "1197": " remember",
  "1198": "led",
  "1199": "ac",
  "1200": " duck",
  "1201": " Do",
  "1202": " pie",
  "1203": " sand",
  "1204": " real",
  "1205": " advent",
  "1206": "imes",
  "1207": " bag",
  "1208": " con",
  "1209": " curi",
  "1210": " cold",
  "1211": " moral",
  "1212": " hop",
  "1213": " dir",
  "1214": "llow",
  "1215": "ath",
  "1216": " Fin",
  "1217": " “",
  "1218": " important",
  "1219": " okay",
  "1220": "reed",
  "1221": "ount",
  "1222": " making",
  "1223": " shared",
  "1224": "hn",
  "1225": " curious",
  "1226": " z",
  "1227": " began",
  "1228": " mon",
  "1229": " hid",
  "1230": " tall",
  "1231": "At",
  "1232": " surprise",
  "1233": " yard",
  "1234": " cla",
  "1235": "eet",
  "1236": " here",
  "1237": " favor",
  "1238": "que",
  "1239": "aper",
  "1240": " grass",
  "1241": " favorite",
  "1242": "Don",
  "1243": " rest",
  "1244": " thing",
  "1245": "lly",
  "1246": " worked",
  "1247": "Wow",
  "1248": " dis",
  "1249": "ect",
  "1250": " ice",
  "1251": "ster",
  "1252": " follow",
  "1253": " hot",
  "1254": " agreed",
  "1255": " own",
  "1256": " night",
  "1257": " dress",
  "1258": " top",
  "1259": " sho",
  "1260": " bel",
  "1261": " cut",
  "1262": " watched",
  "1263": " behind",
  "1264": " This",
  "1265": " walking",
  "1266": " trees",
  "1267": " pick",
  "1268": " voice",
  "1269": " block",
  "1270": " stop",
  "1271": " ri",
  "1272": " hun",
  "1273": "isy",
  "1274": " dark",
  "1275": " table",
  "1276": " Dad",
  "1277": " ru",
  "1278": " worry",
  "1279": " tell",
  "1280": "ied",
  "1281": " move",
  "1282": " cars",
  "1283": " colors",
  "1284": " draw",
  "1285": "After",
  "1286": " song",
  "1287": " floor",
  "1288": " turned",
  "1289": " leaves",
  "1290": "fere",
  "1291": " please",
  "1292": " forg",
  "1293": " differe",
  "1294": "aring",
  "1295": "Max",
  "1296": " tail",
  "1297": " fire",
  "1298": "’",
  "1299": " shout",
  "1300": " does",
  "1301": " read",
  "1302": "Why",
  "1303": "co",
  "1304": " needed",
  "1305": "Anna",
  "1306": " farm",
  "1307": " adventure",
  "1308": " Mr",
  "1309": "ike",
  "1310": " Suddenly",
  "1311": "ign",
  "1312": " paper",
  "1313": " closer",
  "1314": "ered",
  "1315": "bo",
  "1316": " feeling",
  "1317": "Sue",
  "1318": " cried",
  "1319": " del",
  "1320": " laugh",
  "1321": " lion",
  "1322": " hungry",
  "1323": " different",
  "1324": " sweet",
  "1325": " tast",
  "1326": " wet",
  "1327": " roll",
  "1328": " swing",
  "1329": " full",
  "1330": "ached",
  "1331": " Bobo",
  "1332": " That",
  "1333": " climbed",
  "1334": " yellow",
  "1335": " As",
  "1336": " friendly",
  "1337": " danc",
  "1338": " wood",
  "1339": " dance",
  "1340": " piece",
  "1341": "oom",
  "1342": " lady",
  "1343": "ken",
  "1344": " plan",
  "1345": " cr",
  "1346": " ready",
  "1347": "ater",
  "1348": " butter",
  "1349": " broken",
  "1350": " Timmy",
  "1351": "Sam",
  "1352": " prin",
  "1353": " touch",
  "1354": "bye",
  "1355": " running",
  "1356": "where",
  "1357": " per",
  "1358": " wonder",
  "1359": " ant",
  "1360": "ient",
  "1361": " light",
  "1362": "She",
  "1363": " swim",
  "1364": "cked",
  "1365": " prom",
  "1366": " gone",
  "1367": " only",
  "1368": " listened",
  "1369": " hair",
  "1370": " close",
  "1371": "ppy",
  "1372": " hold",
  "1373": " pretend",
  "1374": " another",
  "1375": " glad",
  "1376": "ins",
  "1377": "So",
  "1378": " reached",
  "1379": "ndma",
  "1380": "bbed",
  "1381": " fruit",
  "1382": " blocks",
  "1383": "sh",
  "1384": " helping",
  "1385": " sees",
  "1386": "Suddenly",
  "1387": "ila",
  "1388": " Jane",
  "1389": " cool",
  "1390": " slow",
  "1391": " smell",
  "1392": "oney",
  "1393": "aby",
  "1394": " repl",
  "1395": " been",
  "1396": "Sara",
  "1397": " dri",
  "1398": "af",
  "1399": " amaz",
  "1400": "ather",
  "1401": " stuck",
  "1402": " All",
  "1403": " goodbye",
  "1404": " wall",
  "1405": " ac",
  "1406": " ste",
  "1407": " sit",
  "1408": " less",
  "1409": " O",
  "1410": " Everyone",
  "1411": " pu",
  "1412": "iced",
  "1413": "av",
  "1414": " might",
  "1415": " ar",
  "1416": " must",
  "1417": " snow",
  "1418": " cream",
  "1419": "aisy",
  "1420": " quick",
  "1421": " pushed",
  "1422": " name",
  "1423": " moment",
  "1424": " balloon",
  "1425": " bit",
  "1426": " din",
  "1427": " coming",
  "1428": " wished",
  "1429": " fair",
  "1430": " window",
  "1431": " looks",
  "1432": " wag",
  "1433": "Mia",
  "1434": " underst",
  "1435": " held",
  "1436": "red",
  "1437": " trying",
  "1438": " doing",
  "1439": " explore",
  "1440": " done",
  "1441": " cloud",
  "1442": " bar",
  "1443": " baby",
  "1444": "icy",
  "1445": " win",
  "1446": " child",
  "1447": " dream",
  "1448": " fight",
  "1449": "ames",
  "1450": " hide",
  "1451": " perf",
  "1452": " dirty",
  "1453": " buy",
  "1454": " train",
  "1455": " grow",
  "1456": " thank",
  "1457": " apple",
  "1458": "ized",
  "1459": " dro",
  "1460": " butterf",
  "1461": " through",
  "1462": " why",
  "1463": " left",
  "1464": " books",
  "1465": "amp",
  "1466": "'re",
  "1467": " reach",
  "1468": " brother",
  "1469": " fall",
  "1470": "ott",
  "1471": "In",
  "1472": " sure",
  "1473": " mat",
  "1474": " clapped",
  "1475": " tiny",
  "1476": " pink",
  "1477": " count",
  "1478": " scary",
  "1479": "ely",
  "1480": " shouted",
  "1481": " replied",
  "1482": " three",
  "1483": " air",
  "1484": "ix",
  "1485": "uddy",
  "1486": "key",
  "1487": "Okay",
  "1488": "ield",
  "1489": "ash",
  "1490": "andy",
  "1491": " plant",
  "1492": " land",
  "1493": " wise",
  "1494": " build",
  "1495": " sometimes",
  "1496": " seen",
  "1497": " spl",
  "1498": " cup",
  "1499": "ation",
  "1500": " blew",
  "1501": "der",
  "1502": " woods",
  "1503": "pe",
  "1504": " mar",
  "1505": "outh",
  "1506": " pulled",
  "1507": " join",
  "1508": " pot",
  "1509": " pen",
  "1510": " bigger",
  "1511": "art",
  "1512": " paint",
  "1513": " mouth",
  "1514": " waited",
  "1515": " stayed",
  "1516": " remembered",
  "1517": " enjoyed",
  "1518": " quickly",
  "1519": " pictures",
  "1520": " lesson",
  "1521": " waved",
  "1522": " After",
  "1523": " grabbed",
  "1524": " Mommy",
  "1525": " colorful",
  "1526": "room",
  "1527": " bran",
  "1528": "ower",
  "1529": " alone",
  "1530": " ve",
  "1531": " owl",
  "1532": "man",
  "1533": " games",
  "1534": " There",
  "1535": " treat",
  "1536": " anything",
  "1537": " fill",
  "1538": " cont",
  "1539": "ask",
  "1540": "oup",
  "1541": "de",
  "1542": " spot",
  "1543": "avy",
  "1544": " nest",
  "1545": "Jo",
  "1546": " cast",
  "1547": " chair",
  "1548": "ds",
  "1549": "cle",
  "1550": " job",
  "1551": "This",
  "1552": "Oh",
  "1553": " cre",
  "1554": " je",
  "1555": " noticed",
  "1556": " tight",
  "1557": " miss",
  "1558": " set",
  "1559": " gent",
  "1560": "asure",
  "1561": "ph",
  "1562": " butterfly",
  "1563": " bike",
  "1564": "ries",
  "1565": " turns",
  "1566": "lc",
  "1567": " bott",
  "1568": " Daisy",
  "1569": " hopped",
  "1570": "row",
  "1571": " Buddy",
  "1572": "ucky",
  "1573": " world",
  "1574": " pat",
  "1575": " broke",
  "1576": " sea",
  "1577": " comp",
  "1578": " mix",
  "1579": " clot",
  "1580": " arm",
  "1581": " year",
  "1582": " likes",
  "1583": " clothes",
  "1584": " gif",
  "1585": "ape",
  "1586": " threw",
  "1587": " himself",
  "1588": " mus",
  "1589": " tower",
  "1590": " heavy",
  "1591": " swam",
  "1592": "Her",
  "1593": "ton",
  "1594": " pol",
  "1595": " break",
  "1596": " everywhere",
  "1597": " bee",
  "1598": " followed",
  "1599": " What",
  "1600": " makes",
  "1601": " black",
  "1602": " key",
  "1603": "Bob",
  "1604": "Do",
  "1605": " won",
  "1606": " delic",
  "1607": "Lucy",
  "1608": "\".",
  "1609": "Spot",
  "1610": " wrong",
  "1611": "ner",
  "1612": "less",
  "1613": " white",
  "1614": " danced",
  "1615": " nap",
  "1616": " castle",
  "1617": "iet",
  "1618": "ctor",
  "1619": "cess",
  "1620": " round",
  "1621": "thy",
  "1622": " forgot",
  "1623": "ued",
  "1624": "olly",
  "1625": " ju",
  "1626": " vis",
  "1627": " quiet",
  "1628": "orm",
  "1629": " deep",
  "1630": " stu",
  "1631": " wear",
  "1632": " bor",
  "1633": " John",
  "1634": " monster",
  "1635": "ee",
  "1636": "ully",
  "1637": " music",
  "1638": " understand",
  "1639": " rel",
  "1640": " ride",
  "1641": " brought",
  "1642": "zz",
  "1643": " wants",
  "1644": " hit",
  "1645": " dry",
  "1646": "os",
  "1647": "arent",
  "1648": "fully",
  "1649": " que",
  "1650": " Sarah",
  "1651": "ves",
  "1652": " leaf",
  "1653": " mum",
  "1654": "ister",
  "1655": "cy",
  "1656": "ren",
  "1657": "oun",
  "1658": " parent",
  "1659": " fox",
  "1660": " talked",
  "1661": " faster",
  "1662": " sign",
  "1663": "From",
  "1664": "ross",
  "1665": " em",
  "1666": " leg",
  "1667": " smart",
  "1668": "ance",
  "1669": " sec",
  "1670": "rot",
  "1671": " rocks",
  "1672": " res",
  "1673": " sharing",
  "1674": " Inside",
  "1675": " gi",
  "1676": " worried",
  "1677": " To",
  "1678": " visit",
  "1679": " blank",
  "1680": " finished",
  "1681": "ts",
  "1682": " well",
  "1683": " happen",
  "1684": " side",
  "1685": " cookies",
  "1686": " secret",
  "1687": "ards",
  "1688": " king",
  "1689": " dinner",
  "1690": " someone",
  "1691": " poin",
  "1692": " flying",
  "1693": " blanket",
  "1694": " really",
  "1695": "Maybe",
  "1696": " silly",
  "1697": " bowl",
  "1698": " contin",
  "1699": " Em",
  "1700": "itten",
  "1701": "ence",
  "1702": " ele",
  "1703": " button",
  "1704": " Maybe",
  "1705": " everything",
  "1706": " sister",
  "1707": "ang",
  "1708": " spr",
  "1709": " Lila",
  "1710": "John",
  "1711": " pig",
  "1712": " el",
  "1713": "ey",
  "1714": " smiles",
  "1715": " jar",
  "1716": " field",
  "1717": " today",
  "1718": " Soon",
  "1719": " gu",
  "1720": " perfect",
  "1721": " orange",
  "1722": " else",
  "1723": " pudd",
  "1724": " wish",
  "1725": " children",
  "1726": " mud",
  "1727": " free",
  "1728": " carefully",
  "1729": " past",
  "1730": " At",
  "1731": "imi",
  "1732": "His",
  "1733": "ated",
  "1734": "Fin",
  "1735": " ear",
  "1736": " danger",
  "1737": " crying",
  "1738": " beach",
  "1739": "While",
  "1740": " grandma",
  "1741": " welc",
  "1742": "eddy",
  "1743": " shin",
  "1744": " sang",
  "1745": "ze",
  "1746": " filled",
  "1747": " continued",
  "1748": " eating",
  "1749": " promised",
  "1750": " branch",
  "1751": "ses",
  "1752": " river",
  "1753": " brown",
  "1754": "ead",
  "1755": "itting",
  "1756": " drink",
  "1757": "Just",
  "1758": " rolled",
  "1759": " realized",
  "1760": " snack",
  "1761": "ipp",
  "1762": " purp",
  "1763": " bite",
  "1764": "stead",
  "1765": " snake",
  "1766": " throw",
  "1767": " lon",
  "1768": " closed",
  "1769": " lonely",
  "1770": " pieces",
  "1771": "board",
  "1772": "Amy",
  "1773": " pet",
  "1774": " crab",
  "1775": " Billy",
  "1776": " laughing",
  "1777": " asks",
  "1778": " yes",
  "1779": " soup",
  "1780": " purple",
  "1781": " cow",
  "1782": "chool",
  "1783": " fur",
  "1784": " fairy",
  "1785": "Mommy",
  "1786": "ons",
  "1787": " shoes",
  "1788": "ises",
  "1789": " runs",
  "1790": " bath",
  "1791": " school",
  "1792": " apples",
  "1793": "cket",
  "1794": " monkey",
  "1795": "gy",
  "1796": " att",
  "1797": " words",
  "1798": " Bl",
  "1799": " parents",
  "1800": "used",
  "1801": " strange",
  "1802": " gift",
  "1803": " barked",
  "1804": " amazing",
  "1805": " morning",
  "1806": " Ch",
  "1807": " wagged",
  "1808": " without",
  "1809": "iver",
  "1810": " moved",
  "1811": " sitting",
  "1812": " road",
  "1813": "fish",
  "1814": " bottle",
  "1815": ".”",
  "1816": " sail",
  "1817": " su",
  "1818": " boun",
  "1819": "ire",
  "1820": " whe",
  "1821": " enough",
  "1822": " mad",
  "1823": "ased",
  "1824": "ord",
  "1825": "ass",
  "1826": " candy",
  "1827": " chee",
  "1828": " Jen",
  "1829": "ich",
  "1830": " -",
  "1831": " hor",
  "1832": "vel",
  "1833": " welcome",
  "1834": " letter",
  "1835": " dangerous",
  "1836": " getting",
  "1837": "fort",
  "1838": " ce",
  "1839": " drag",
  "1840": " doctor",
  "1841": " Mimi",
  "1842": "unch",
  "1843": " treasure",
  "1844": "emy",
  "1845": " whist",
  "1846": " coll",
  "1847": "ale",
  "1848": " living",
  "1849": " lake",
  "1850": " Z",
  "1851": "una",
  "1852": " smo",
  "1853": " pass",
  "1854": " money",
  "1855": "igh",
  "1856": " thinks",
  "1857": " ph",
  "1858": "arm",
  "1859": " belie",
  "1860": " Gra",
  "1861": " creat",
  "1862": "!”",
  "1863": " shop",
  "1864": "ush",
  "1865": " Joe",
  "1866": " pill",
  "1867": " coat",
  "1868": "ible",
  "1869": "bow",
  "1870": "set",
  "1871": " talking",
  "1872": "althy",
  "1873": " start",
  "1874": " finally",
  "1875": " delicious",
  "1876": " bow",
  "1877": "ined",
  "1878": "me",
  "1879": " wings",
  "1880": " push",
  "1881": " stre",
  "1882": " stand",
  "1883": " shining",
  "1884": "igg",
  "1885": "app",
  "1886": "ella",
  "1887": "'ll",
  "1888": " mother",
  "1889": " paw",
  "1890": "gg",
  "1891": " fan",
  "1892": " puddle",
  "1893": " pre",
  "1894": " higher",
  "1895": " caught",
  "1896": "asket",
  "1897": " basket",
  "1898": " swings",
  "1899": " nose",
  "1900": " ra",
  "1901": " dropped",
  "1902": " seed",
  "1903": " same",
  "1904": " scream",
  "1905": " mail",
  "1906": " rainbow",
  "1907": " days",
  "1908": "itch",
  "1909": " bring",
  "1910": "Please",
  "1911": " egg",
  "1912": "isk",
  "1913": "OK",
  "1914": " woke",
  "1915": "cks",
  "1916": " stone",
  "1917": "eb",
  "1918": " tom",
  "1919": " arri",
  "1920": " Tommy",
  "1921": " bat",
  "1922": " tasty",
  "1923": " sear",
  "1924": "sw",
  "1925": " buck",
  "1926": " years",
  "1927": " herself",
  "1928": "ches",
  "1929": " spin",
  "1930": " answ",
  "1931": " owner",
  "1932": "ier",
  "1933": " ben",
  "1934": " teddy",
  "1935": " farmer",
  "1936": " cheered",
  "1937": " belong",
  "1938": " sack",
  "1939": " fit",
  "1940": " pers",
  "1941": " wore",
  "1942": " teac",
  "1943": "sy",
  "1944": " nut",
  "1945": " cute",
  "1946": " twins",
  "1947": " cheese",
  "1948": "llie",
  "1949": "iskers",
  "1950": " corn",
  "1951": "sc",
  "1952": " dolls",
  "1953": "phant",
  "1954": "erry",
  "1955": "Jack",
  "1956": " mine",
  "1957": " hoped",
  "1958": " Blue",
  "1959": " min",
  "1960": " singing",
  "1961": " rope",
  "1962": " carrot",
  "1963": " gentle",
  "1964": " Remy",
  "1965": " bread",
  "1966": "Finally",
  "1967": " elephant",
  "1968": " grew",
  "1969": " shell",
  "1970": " vill",
  "1971": " forever",
  "1972": " cour",
  "1973": " teach",
  "1974": " cray",
  "1975": " seem",
  "1976": " shap",
  "1977": " wonderful",
  "1978": " trou",
  "1979": " heart",
  "1980": "ipped",
  "1981": " prob",
  "1982": " carry",
  "1983": " Emma",
  "1984": "ball",
  "1985": "isa",
  "1986": " dragon",
  "1987": " sounds",
  "1988": " puppy",
  "1989": " touc",
  "1990": "lem",
  "1991": " shook",
  "1992": " most",
  "1993": " pile",
  "1994": "ose",
  "1995": "br",
  "1996": " problem",
  "1997": " num",
  "1998": " honey",
  "1999": " course",
  "2000": " bush",
  "2001": "Good",
  "2002": " arrived",
  "2003": "ract",
  "2004": " shake",
  "2005": " lunch",
  "2006": " hiding",
  "2007": "\n ",
  "2008": " power",
  "2009": " able",
  "2010": " joy",
  "2011": "irth",
  "2012": "idge",
  "2013": "fused",
  "2014": " teacher",
  "2015": " dirt",
  "2016": "urtle",
  "2017": " fence",
  "2018": " Thank",
  "2019": " bench",
  "2020": "irthday",
  "2021": " inc",
  "2022": "ator",
  "2023": " street",
  "2024": " shapes",
  "2025": " holding",
  "2026": "irp",
  "2027": " Whiskers",
  "2028": "ian",
  "2029": "adow",
  "2030": " horse",
  "2031": "aughty",
  "2032": "unt",
  "2033": " village",
  "2034": " touched",
  "2035": " band",
  "2036": " plane",
  "2037": " pop",
  "2038": " spark",
  "2039": " meet",
  "2040": " promise",
  "2041": " naughty",
  "2042": " busy",
  "2043": " bugs",
  "2044": "ato",
  "2045": " shr",
  "2046": "eared",
  "2047": " believe",
  "2048": " juice",
  "2049": " bell",
  "2050": " spoon",
  "2051": " trip",
  "2052": " kite",
  "2053": " few",
  "2054": "epend",
  "2055": " feels",
  "2056": " eas",
  "2057": " shar",
  "2058": " cave",
  "2059": " birthday",
  "2060": " sharp",
  "2061": "ama",
  "2062": " Bella",
  "2063": " towards",
  "2064": " organ",
  "2065": " des",
  "2066": "ountain",
  "2067": " patient",
  "2068": "ney",
  "2069": " upset",
  "2070": " turtle",
  "2071": " spo",
  "2072": " neck",
  "2073": " late",
  "2074": " war",
  "2075": " pocket",
  "2076": " stars",
  "2077": " noises",
  "2078": " jour",
  "2079": " storm",
  "2080": " mark",
  "2081": " helpful",
  "2082": " fold",
  "2083": "ol",
  "2084": "gly",
  "2085": " giant",
  "2086": " cloth",
  "2087": " Bu",
  "2088": " balls",
  "2089": " lem",
  "2090": " driver",
  "2091": " mist",
  "2092": " kiss",
  "2093": " gray",
  "2094": " ob",
  "2095": " card",
  "2096": " live",
  "2097": " whistle",
  "2098": "eter",
  "2099": " wra",
  "2100": "aur",
  "2101": " rude",
  "2102": " lucky",
  "2103": " ugly",
  "2104": " taking",
  "2105": " magical",
  "2106": " hugs",
  "2107": "alm",
  "2108": "ling",
  "2109": " slowly",
  "2110": " seat",
  "2111": " treats",
  "2112": " pillow",
  "2113": " wild",
  "2114": " rec",
  "2115": " rob",
  "2116": "ub",
  "2117": "ilk",
  "2118": "lla",
  "2119": " stories",
  "2120": "read",
  "2121": "ost",
  "2122": " spid",
  "2123": " suc",
  "2124": " cover",
  "2125": " disapp",
  "2126": " amazed",
  "2127": " milk",
  "2128": "col",
  "2129": " shy",
  "2130": " ducks",
  "2131": "iling",
  "2132": "ize",
  "2133": "fortable",
  "2134": " robot",
  "2135": "umpy",
  "2136": " zoom",
  "2137": " wide",
  "2138": " ser",
  "2139": " wasn",
  "2140": " dist",
  "2141": " string",
  "2142": " Fred",
  "2143": "ular",
  "2144": " puzz",
  "2145": " phone",
  "2146": " drove",
  "2147": " Mark",
  "2148": "ove",
  "2149": " inv",
  "2150": " splas",
  "2151": " sandw",
  "2152": " moon",
  "2153": " glow",
  "2154": " princess",
  "2155": "pping",
  "2156": " coin",
  "2157": " seek",
  "2158": " bucket",
  "2159": " young",
  "2160": " snowman",
  "2161": " grab",
  "2162": "elly",
  "2163": " net",
  "2164": " Le",
  "2165": " cir",
  "2166": " wheel",
  "2167": " boss",
  "2168": " Jim",
  "2169": "Hey",
  "2170": " part",
  "2171": " huge",
  "2172": " Finally",
  "2173": "not",
  "2174": "irt",
  "2175": " sug",
  "2176": " instead",
  "2177": " sel",
  "2178": "Lila",
  "2179": "bbles",
  "2180": " daddy",
  "2181": "ens",
  "2182": " write",
  "2183": "Sure",
  "2184": " bone",
  "2185": "ors",
  "2186": " cannot",
  "2187": "ung",
  "2188": "Later",
  "2189": " mach",
  "2190": " thin",
  "2191": "pper",
  "2192": "Be",
  "2193": " On",
  "2194": " mot",
  "2195": " Lisa",
  "2196": "up",
  "2197": "Of",
  "2198": " cookie",
  "2199": " craw",
  "2200": " ca",
  "2201": "iger",
  "2202": " foot",
  "2203": " Just",
  "2204": " selfish",
  "2205": " sal",
  "2206": " chick",
  "2207": " spicy",
  "2208": " drive",
  "2209": " sick",
  "2210": " Cat",
  "2211": "den",
  "2212": " slid",
  "2213": " fixed",
  "2214": " last",
  "2215": " comes",
  "2216": " adventures",
  "2217": " forget",
  "2218": " spider",
  "2219": " stepped",
  "2220": "rest",
  "2221": "let",
  "2222": " kitten",
  "2223": "est",
  "2224": " hidden",
  "2225": " chased",
  "2226": " di",
  "2227": " spray",
  "2228": " suddenly",
  "2229": " Come",
  "2230": "lower",
  "2231": " tea",
  "2232": "oggy",
  "2233": " tie",
  "2234": " fighting",
  "2235": " val",
  "2236": " beak",
  "2237": " shelf",
  "2238": "irpy",
  "2239": "ert",
  "2240": " missed",
  "2241": "dge",
  "2242": " sleepy",
  "2243": " oven",
  "2244": " finish",
  "2245": " tid",
  "2246": " lad",
  "2247": "bled",
  "2248": " wave",
  "2249": " bark",
  "2250": " Luna",
  "2251": " Momo",
  "2252": "erest",
  "2253": "oose",
  "2254": " clever",
  "2255": "rill",
  "2256": " peace",
  "2257": " path",
  "2258": " messy",
  "2259": " across",
  "2260": "ery",
  "2261": " rad",
  "2262": " life",
  "2263": " grate",
  "2264": " confused",
  "2265": " smooth",
  "2266": " pan",
  "2267": " later",
  "2268": " chew",
  "2269": " N",
  "2270": " taste",
  "2271": " Bunny",
  "2272": " jelly",
  "2273": "izz",
  "2274": " ladder",
  "2275": " interest",
  "2276": " imag",
  "2277": " change",
  "2278": "Soon",
  "2279": " ring",
  "2280": " watching",
  "2281": " landed",
  "2282": " grateful",
  "2283": "to",
  "2284": "St",
  "2285": " legs",
  "2286": " ash",
  "2287": " grumpy",
  "2288": "ever",
  "2289": " queen",
  "2290": " songs",
  "2291": " joke",
  "2292": " cho",
  "2293": "oph",
  "2294": " fle",
  "2295": "ity",
  "2296": " wash",
  "2297": " tidy",
  "2298": " bought",
  "2299": "eth",
  "2300": "amed",
  "2301": " spe",
  "2302": "ions",
  "2303": " though",
  "2304": " yog",
  "2305": " sour",
  "2306": " Jill",
  "2307": "ained",
  "2308": " Daddy",
  "2309": "To",
  "2310": " zoo",
  "2311": " myster",
  "2312": "?”",
  "2313": " cou",
  "2314": " ent",
  "2315": " exp",
  "2316": " rocket",
  "2317": " sticks",
  "2318": " machine",
  "2319": " Ann",
  "2320": " lemon",
  "2321": " Grandma",
  "2322": "ife",
  "2323": " lift",
  "2324": "yard",
  "2325": "ugg",
  "2326": " fing",
  "2327": " drew",
  "2328": " cart",
  "2329": "izzy",
  "2330": " hope",
  "2331": " dogs",
  "2332": " lay",
  "2333": " ban",
  "2334": " Leo",
  "2335": "mer",
  "2336": "ward",
  "2337": " quest",
  "2338": " jog",
  "2339": "ars",
  "2340": " clouds",
  "2341": "wel",
  "2342": " step",
  "2343": " pack",
  "2344": " nothing",
  "2345": " calm",
  "2346": " backyard",
  "2347": " worm",
  "2348": " sheep",
  "2349": " Chirpy",
  "2350": " fil",
  "2351": " gently",
  "2352": " Be",
  "2353": " takes",
  "2354": " places",
  "2355": " along",
  "2356": "oof",
  "2357": "ming",
  "2358": "ones",
  "2359": "llo",
  "2360": " wondered",
  "2361": " jewel",
  "2362": " plate",
  "2363": " explor",
  "2364": " Ollie",
  "2365": "unk",
  "2366": " interesting",
  "2367": " kick",
  "2368": " Jerry",
  "2369": " fruits",
  "2370": " ba",
  "2371": " smelly",
  "2372": "orrow",
  "2373": " seemed",
  "2374": " scar",
  "2375": " neigh",
  "2376": " motor",
  "2377": "pty",
  "2378": " forgive",
  "2379": " empty",
  "2380": "kin",
  "2381": " map",
  "2382": " faces",
  "2383": " banan",
  "2384": "pect",
  "2385": " anyone",
  "2386": " With",
  "2387": " whole",
  "2388": "ope",
  "2389": "box",
  "2390": " puzzle",
  "2391": "erly",
  "2392": " bossy",
  "2393": " splash",
  "2394": " save",
  "2395": " mind",
  "2396": " longer",
  "2397": " arms",
  "2398": " working",
  "2399": " law",
  "2400": " neighb",
  "2401": " av",
  "2402": " onto",
  "2403": "ont",
  "2404": " ign",
  "2405": " pour",
  "2406": " wolf",
  "2407": " dish",
  "2408": " smelled",
  "2409": "ork",
  "2410": "Come",
  "2411": " maybe",
  "2412": " prot",
  "2413": " boring",
  "2414": " TV",
  "2415": "ult",
  "2416": " weak",
  "2417": " supp",
  "2418": " mistake",
  "2419": "bar",
  "2420": " lovely",
  "2421": "sp",
  "2422": " feather",
  "2423": "ipe",
  "2424": "bble",
  "2425": " person",
  "2426": "oomy",
  "2427": " wing",
  "2428": " med",
  "2429": "ocked",
  "2430": " jumping",
  "2431": " tomorrow",
  "2432": " pract",
  "2433": " gives",
  "2434": " easy",
  "2435": " ret",
  "2436": " saved",
  "2437": " plants",
  "2438": " lazy",
  "2439": " front",
  "2440": "osaur",
  "2441": "ned",
  "2442": " pin",
  "2443": " deer",
  "2444": " trouble",
  "2445": " return",
  "2446": " gather",
  "2447": "arge",
  "2448": "My",
  "2449": " swimming",
  "2450": " such",
  "2451": " act",
  "2452": " cross",
  "2453": "era",
  "2454": "aced",
  "2455": "ment",
  "2456": " goes",
  "2457": "rass",
  "2458": " healthy",
  "2459": " sol",
  "2460": " ants",
  "2461": "barrass",
  "2462": "Sally",
  "2463": " waiting",
  "2464": " embarrass",
  "2465": " number",
  "2466": " Molly",
  "2467": "izza",
  "2468": " match",
  "2469": "onest",
  "2470": "iting",
  "2471": " true",
  "2472": "ually",
  "2473": " gold",
  "2474": " fake",
  "2475": " Their",
  "2476": " fancy",
  "2477": "ek",
  "2478": " line",
  "2479": "oman",
  "2480": " dinosaur",
  "2481": " honest",
  "2482": " scarf",
  "2483": "irr",
  "2484": " pizza",
  "2485": "oc",
  "2486": "Kitty",
  "2487": " pool",
  "2488": " journey",
  "2489": "And",
  "2490": " woman",
  "2491": " appeared",
  "2492": "vous",
  "2493": " large",
  "2494": " impress",
  "2495": " Why",
  "2496": " stood",
  "2497": " icy",
  "2498": "uce",
  "2499": " hum",
  "2500": " eag",
  "2501": " cheer",
  "2502": " powerful",
  "2503": " drum",
  "2504": "oop",
  "2505": " note",
  "2506": "aw",
  "2507": " loves",
  "2508": " Bobby",
  "2509": " success",
  "2510": " crayons",
  "2511": " pointed",
  "2512": " cage",
  "2513": " My",
  "2514": " nearby",
  "2515": "urse",
  "2516": " puts",
  "2517": " dig",
  "2518": " pretended",
  "2519": "gest",
  "2520": " Somet",
  "2521": " splashed",
  "2522": " Together",
  "2523": " ner",
  "2524": " nervous",
  "2525": " teeth",
  "2526": " shadow",
  "2527": " screamed",
  "2528": " ashamed",
  "2529": " shark",
  "2530": " answer",
  "2531": " sandwich",
  "2532": " sur",
  "2533": " noisy",
  "2534": " trust",
  "2535": " sold",
  "2536": " Please",
  "2537": "elp",
  "2538": " rich",
  "2539": " Doggy",
  "2540": " chase",
  "2541": " wearing",
  "2542": " af",
  "2543": " dancing",
  "2544": " cozy",
  "2545": "ina",
  "2546": " wis",
  "2547": " closet",
  "2548": " waff",
  "2549": " hang",
  "2550": " clay",
  "2551": " carried",
  "2552": " boot",
  "2553": " hello",
  "2554": "scape",
  "2555": " stret",
  "2556": "icked",
  "2557": " fear",
  "2558": " bean",
  "2559": "live",
  "2560": "aughter",
  "2561": " bounce",
  "2562": "ado",
  "2563": " snee",
  "2564": " How",
  "2565": " soap",
  "2566": " ship",
  "2567": " cleaned",
  "2568": " Go",
  "2569": " search",
  "2570": " lock",
  "2571": " If",
  "2572": " reg",
  "2573": " Mary",
  "2574": " tape",
  "2575": "ute",
  "2576": "raid",
  "2577": " smiling",
  "2578": " relie",
  "2579": " afraid",
  "2580": "pa",
  "2581": " tries",
  "2582": " gate",
  "2583": " Don",
  "2584": " creative",
  "2585": " prince",
  "2586": " painted",
  "2587": " pri",
  "2588": " matter",
  "2589": " glass",
  "2590": " bal",
  "2591": "iff",
  "2592": " polite",
  "2593": "arl",
  "2594": " moms",
  "2595": " shirt",
  "2596": " decor",
  "2597": "rag",
  "2598": "ness",
  "2599": "Stop",
  "2600": " sque",
  "2601": " feet",
  "2602": "Help",
  "2603": " saf",
  "2604": " rare",
  "2605": " clock",
  "2606": "lebr",
  "2607": " daughter",
  "2608": " fat",
  "2609": " vase",
  "2610": " hose",
  "2611": " celebr",
  "2612": " van",
  "2613": " cap",
  "2614": " Bear",
  "2615": " couch",
  "2616": " corner",
  "2617": " Benny",
  "2618": "Dad",
  "2619": " stra",
  "2620": " ap",
  "2621": " bridge",
  "2622": " wand",
  "2623": " drank",
  "2624": " class",
  "2625": "isp",
  "2626": " balloons",
  "2627": "imp",
  "2628": " these",
  "2629": " Bird",
  "2630": " chocol",
  "2631": "itter",
  "2632": " building",
  "2633": "ndpa",
  "2634": " tent",
  "2635": " print",
  "2636": " knee",
  "2637": " barn",
  "2638": "ote",
  "2639": " thick",
  "2640": " tiger",
  "2641": " hur",
  "2642": " clap",
  "2643": "nic",
  "2644": " protect",
  "2645": " picnic",
  "2646": " mirr",
  "2647": " jeep",
  "2648": " bake",
  "2649": "ser",
  "2650": " St",
  "2651": " whisp",
  "2652": " disco",
  "2653": " chicken",
  "2654": " furry",
  "2655": "ual",
  "2656": " feed",
  "2657": " bald",
  "2658": " mighty",
  "2659": " gigg",
  "2660": " mysterious",
  "2661": " mirror",
  "2662": " embarrassed",
  "2663": " poor",
  "2664": " jet",
  "2665": " gun",
  "2666": " stamp",
  "2667": " peaceful",
  "2668": "ensive",
  "2669": " clown",
  "2670": " circle",
  "2671": " knocked",
  "2672": " kicked",
  "2673": " tele",
  "2674": " relieved",
  "2675": " mis",
  "2676": " expensive",
  "2677": " Tr",
  "2678": " crown",
  "2679": " Sometimes",
  "2680": "issors",
  "2681": " space",
  "2682": " respect",
  "2683": " hero",
  "2684": " organized",
  "2685": " measure",
  "2686": " aunt",
  "2687": " chocolate",
  "2688": " sugar",
  "2689": " march",
  "2690": " Some",
  "2691": " police",
  "2692": " lamp",
  "2693": "bby",
  "2694": " stir",
  "2695": "ym",
  "2696": " gas",
  "2697": " whale",
  "2698": " fool",
  "2699": " become",
  "2700": "ventually",
  "2701": " wouldn",
  "2702": " frag",
  "2703": " tasted",
  "2704": " gen",
  "2705": " eld",
  "2706": " word",
  "2707": "erries",
  "2708": " tool",
  "2709": " scissors",
  "2710": " scare",
  "2711": " clear",
  "2712": "ustr",
  "2713": "oppy",
  "2714": "kn",
  "2715": " spread",
  "2716": " exploring",
  "2717": " collect",
  "2718": " berries",
  "2719": "lves",
  "2720": " yelled",
  "2721": " wake",
  "2722": " branches",
  "2723": " test",
  "2724": " fragile",
  "2725": "und",
  "2726": "any",
  "2727": " tick",
  "2728": " rough",
  "2729": " dull",
  "2730": " dizzy",
  "2731": " square",
  "2732": " potato",
  "2733": "mb",
  "2734": " pay",
  "2735": " stubb",
  "2736": " cand",
  "2737": " brush",
  "2738": " Sp",
  "2739": "ced",
  "2740": " washed",
  "2741": " towel",
  "2742": " lose",
  "2743": " foolish",
  "2744": " blow",
  "2745": " understood",
  "2746": " muff",
  "2747": " incred",
  "2748": "port",
  "2749": "known",
  "2750": " twist",
  "2751": " 3",
  "2752": " stubborn",
  "2753": " har",
  "2754": " elderly",
  "2755": "ustrated",
  "2756": " lab",
  "2757": " group",
  "2758": " famous",
  "2759": " lead",
  "2760": " finger",
  "2761": " Br",
  "2762": " sock",
  "2763": " nuts",
  "2764": " incredible",
  "2765": " fright",
  "2766": " finding",
  "2767": "alous",
  "2768": " mixed",
  "2769": " hears",
  "2770": " unknown",
  "2771": " jealous",
  "2772": " horn",
  "2773": " Tiny",
  "2774": "ighed",
  "2775": " breath",
  "2776": " rat",
  "2777": " pres",
  "2778": " yarn",
  "2779": " sunf",
  "2780": " glue",
  "2781": " exam",
  "2782": "ory",
  "2783": " cri",
  "2784": " cone",
  "2785": " board",
  "2786": " frustrated",
  "2787": " Al",
  "2788": "dle",
  "2789": " pump",
  "2790": " nosy",
  "2791": " burn",
  "2792": " ind",
  "2793": " dug",
  "2794": " comfortable",
  "2795": "airs",
  "2796": " drawing",
  "2797": " drop",
  "2798": " stones",
  "2799": " rose",
  "2800": "ony",
  "2801": "alk",
  "2802": " flag",
  "2803": " eggs",
  "2804": " adm",
  "2805": " taught",
  "2806": " guess",
  "2807": "anged",
  "2808": " ter",
  "2809": " fier",
  "2810": "lace",
  "2811": " mountain",
  "2812": " frightened",
  "2813": "yal",
  "2814": "Where",
  "2815": " bubbles",
  "2816": "inky",
  "2817": " gener",
  "2818": " fierce",
  "2819": " wrote",
  "2820": " necklace",
  "2821": " unus",
  "2822": " toast",
  "2823": " terri",
  "2824": " fine",
  "2825": "shine",
  "2826": " searched",
  "2827": " magn",
  "2828": " dead",
  "2829": "orry",
  "2830": " which",
  "2831": " unusual",
  "2832": " spent",
  "2833": " depend",
  "2834": "owed",
  "2835": "ond",
  "2836": "Tommy",
  "2837": "gu",
  "2838": " sunshine",
  "2839": " pray",
  "2840": "ique",
  "2841": " shoe",
  "2842": " creature",
  "2843": "ume",
  "2844": "fic",
  "2845": "anut",
  "2846": " seeds",
  "2847": " sco",
  "2848": " cab",
  "2849": " '",
  "2850": " weird",
  "2851": " unique",
  "2852": " diffic",
  "2853": " wealthy",
  "2854": " covered",
  "2855": "pid",
  "2856": "getable",
  "2857": " vegetable",
  "2858": " sell",
  "2859": " loyal",
  "2860": " ending",
  "2861": " difficult",
  "2862": "obe",
  "2863": "Who",
  "2864": " log",
  "2865": " stat",
  "2866": "cycle",
  "2867": "cient",
  "2868": " wagon",
  "2869": " stupid",
  "2870": " generous",
  "2871": " changed",
  "2872": "irsty",
  "2873": "Together",
  "2874": " stri",
  "2875": " mic",
  "2876": " hats",
  "2877": " cabin",
  "2878": " ord",
  "2879": " dependable",
  "2880": "aken",
  "2881": "apped",
  "2882": " yourself",
  "2883": " sword",
  "2884": " ignor",
  "2885": " unl",
  "2886": " norm",
  "2887": " dove",
  "2888": " delicate",
  "2889": " ancient",
  "2890": "zzy",
  "2891": " meal",
  "2892": " banana",
  "2893": " Jimmy",
  "2894": "reen",
  "2895": " spoiled",
  "2896": " relax",
  "2897": " acorn",
  "2898": " normal",
  "2899": " joined",
  "2900": " trick",
  "2901": " nods",
  "2902": " gloomy",
  "2903": "Jim",
  "2904": " yours",
  "2905": " thirsty",
  "2906": " paws",
  "2907": " discover",
  "2908": " asleep",
  "2909": "cil",
  "2910": " jolly",
  "2911": " explained",
  "2912": "ray",
  "2913": " crazy",
  "2914": " asking",
  "2915": "Every",
  "2916": " shine",
  "2917": " balance",
  "2918": " add",
  "2919": " taken",
  "2920": " pencil",
  "2921": " mov",
  "2922": " hairy",
  "2923": " clum",
  "2924": " Ducky",
  "2925": " moving",
  "2926": " mel",
  "2927": " ham",
  "2928": "ependent",
  "2929": " thankful",
  "2930": " stuff",
  "2931": " clumsy",
  "2932": " bathroom",
  "2933": " While",
  "2934": "ates",
  "2935": " team",
  "2936": " ref",
  "2937": " magnet",
  "2938": " cries",
  "2939": " toug",
  "2940": " statue",
  "2941": " True",
  "2942": "ying",
  "2943": "robe",
  "2944": " waves",
  "2945": " squee",
  "2946": " present",
  "2947": "iant",
  "2948": " frown",
  "2949": " fig",
  "2950": " bloom",
  "2951": "unn",
  "2952": " twig",
  "2953": " shore",
  "2954": "Here",
  "2955": " wrap",
  "2956": " useful",
  "2957": " tough",
  "2958": " sunflower",
  "2959": " bored",
  "2960": " terrible",
  "2961": " stove",
  "2962": " neighbor",
  "2963": " market",
  "2964": " bedroom",
  "2965": " bitter",
  "2966": "met",
  "2967": " trump",
  "2968": " pepper",
  "2969": " pant",
  "2970": " escape",
  "2971": " Will",
  "2972": " Pe",
  "2973": " trumpet",
  "2974": "ground",
  "2975": " rug",
  "2976": "com",
  "2977": " independent",
  "2978": " helmet",
  "2979": " No",
  "2980": " eager",
  "2981": " smaller",
  "2982": "iddle",
  "2983": "If",
  "2984": " swan",
  "2985": "bers",
  "2986": "appy",
  "2987": " snacks",
  "2988": " salad",
  "2989": " roar",
  "2990": " impressive",
  "2991": " gets",
  "2992": " four",
  "2993": " counted",
  "2994": " cats",
  "2995": " adventur",
  "2996": " Ella",
  "2997": "xible",
  "2998": "iness",
  "2999": " value",
  "3000": " vine",
  "3001": " cro",
  "3002": " adventurous",
  "3003": " shoot",
  "3004": " straw",
  "3005": " peanut",
  "3006": " motorcycle",
  "3007": " exciting",
  "3008": " Your",
  "3009": "iable",
  "3010": " hay",
  "3011": " pumpkin",
  "3012": " low",
  "3013": " bottom",
  "3014": "selves",
  "3015": " times",
  "3016": " steal",
  "3017": " slipped",
  "3018": "ormous",
  "3019": " goat",
  "3020": " fountain",
  "3021": " enormous",
  "3022": " brace",
  "3023": " arrow",
  "3024": " Brown",
  "3025": " successful",
  "3026": " Mama",
  "3027": "rilliant",
  "3028": " spotted",
  "3029": " needle",
  "3030": "iv",
  "3031": "fted",
  "3032": "erable",
  "3033": " solve",
  "3034": " miserable",
  "3035": " middle",
  "3036": " brilliant",
  "3037": " Many",
  "3038": "enny",
  "3039": " pasta",
  "3040": " pants",
  "3041": " moder",
  "3042": " flexible",
  "3043": " fis",
  "3044": " sighed",
  "3045": " obed",
  "3046": " Tw",
  "3047": " witch",
  "3048": " raced",
  "3049": "most",
  "3050": " Instead",
  "3051": " tooth",
  "3052": " serious",
  "3053": " modern",
  "3054": " filthy",
  "3055": " pige",
  "3056": " knowing",
  "3057": " jam",
  "3058": " dough",
  "3059": " guit",
  "3060": " dust",
  "3061": " almost",
  "3062": " mill",
  "3063": " eng",
  "3064": " cube",
  "3065": " obedient",
  "3066": " gem",
  "3067": " borrow",
  "3068": "berry",
  "3069": "cean",
  "3070": " ocean",
  "3071": "als",
  "3072": "Sorry",
  "3073": " tells",
  "3074": " body",
  "3075": " popular",
  "3076": "gust",
  "3077": " scr",
  "3078": " painting",
  "3079": " careless",
  "3080": "Mum",
  "3081": " wander",
  "3082": " knife",
  "3083": " disgust",
  "3084": " comb",
  "3085": " tomato",
  "3086": " chest",
  "3087": "light",
  "3088": "corn",
  "3089": "aff",
  "3090": "Inside",
  "3091": "Are",
  "3092": " quar",
  "3093": " orig",
  "3094": "ours",
  "3095": " parrot",
  "3096": " charm",
  "3097": " Jenny",
  "3098": " reliable",
  "3099": " popcorn",
  "3100": " nail",
  "3101": " flute",
  "3102": "ulu",
  "3103": "oby",
  "3104": "Me",
  "3105": " houses",
  "3106": "ict",
  "3107": " pian",
  "3108": " guitar",
  "3109": " fearful",
  "3110": " crane",
  "3111": " belonged",
  "3112": " sauce",
  "3113": " quarrel",
  "3114": " piano",
  "3115": " pir",
  "3116": "ident",
  "3117": " veil",
  "3118": "inal",
  "3119": "How",
  "3120": " pipe",
  "3121": " grace",
  "3122": " comput",
  "3123": " Andy",
  "3124": " meat",
  "3125": " knot",
  "3126": " fridge",
  "3127": " disgusting",
  "3128": " tied",
  "3129": " shows",
  "3130": " picks",
  "3131": " hook",
  "3132": " collar",
  "3133": " bracelet",
  "3134": "atch",
  "3135": " wrapped",
  "3136": " original",
  "3137": " compet",
  "3138": "ano",
  "3139": " waffle",
  "3140": " metal",
  "3141": " cam",
  "3142": " shiver",
  "3143": " figure",
  "3144": " charming",
  "3145": " cher",
  "3146": "xious",
  "3147": "amond",
  "3148": " tax",
  "3149": " passed",
  "3150": " kissed",
  "3151": " anxious",
  "3152": " remind",
  "3153": " U",
  "3154": "dile",
  "3155": "codile",
  "3156": " stream",
  "3157": " muffin",
  "3158": " lean",
  "3159": " diamond",
  "3160": "zed",
  "3161": "ube",
  "3162": "opter",
  "3163": "icopter",
  "3164": " spring",
  "3165": " lifted",
  "3166": " helicopter",
  "3167": "ages",
  "3168": " medic",
  "3169": " gum",
  "3170": " cop",
  "3171": "lcano",
  "3172": "erp",
  "3173": " movie",
  "3174": " medicine",
  "3175": " hopping",
  "3176": "llip",
  "3177": "llipop",
  "3178": "edy",
  "3179": " thoughtful",
  "3180": " taxi",
  "3181": " standing",
  "3182": " engine",
  "3183": "inary",
  "3184": "io",
  "3185": " roof",
  "3186": " hammer",
  "3187": " harm",
  "3188": " zip",
  "3189": " prize",
  "3190": " guil",
  "3191": " env",
  "3192": " crayon",
  "3193": " computer",
  "3194": "land",
  "3195": " tor",
  "3196": " lollipop",
  "3197": " crocodile",
  "3198": " cheap",
  "3199": "ungle",
  "3200": "Timmy",
  "3201": " hurts",
  "3202": " heal",
  "3203": " press",
  "3204": " mask",
  "3205": " guilty",
  "3206": " flash",
  "3207": "omes",
  "3208": "mbre",
  "3209": "hip",
  "3210": " volcano",
  "3211": " umbre",
  "3212": " ruined",
  "3213": " beet",
  "3214": "ext",
  "3215": " tem",
  "3216": " tank",
  "3217": " regular",
  "3218": " dest",
  "3219": " cryst",
  "3220": "ti",
  "3221": "het",
  "3222": " stage",
  "3223": " jungle",
  "3224": " humble",
  "3225": " harder",
  "3226": " deaf",
  "3227": " avoc",
  "3228": "ilt",
  "3229": " tricks",
  "3230": " tap",
  "3231": " pengu",
  "3232": " friendship",
  "3233": "cream",
  "3234": " tube",
  "3235": " prun",
  "3236": " liz",
  "3237": " happiness",
  "3238": " torn",
  "3239": " shade",
  "3240": " mush",
  "3241": " camera",
  "3242": "opard",
  "3243": " rh",
  "3244": " needs",
  "3245": " batter",
  "3246": "inted",
  "3247": "ging",
  "3248": " swe",
  "3249": " restless",
  "3250": " design",
  "3251": "hetti",
  "3252": "ctus",
  "3253": "aghetti",
  "3254": " vegetables",
  "3255": " tears",
  "3256": " Polly",
  "3257": "ubby",
  "3258": "aze",
  "3259": "ache",
  "3260": " smoke",
  "3261": " record",
  "3262": " oat",
  "3263": "ulb",
  "3264": "azz",
  "3265": " spaghetti",
  "3266": " pale",
  "3267": "igator",
  "3268": " study",
  "3269": " poke",
  "3270": " penny",
  "3271": " pow",
  "3272": " ears",
  "3273": " competit",
  "3274": " compass",
  "3275": " cheerful",
  "3276": " boxes",
  "3277": " father",
  "3278": " gar",
  "3279": " Sammy",
  "3280": "unnel",
  "3281": "erpill",
  "3282": "Sarah",
  "3283": " tunnel",
  "3284": " soldier",
  "3285": " mop",
  "3286": " caterpill",
  "3287": " answered",
  "3288": "There",
  "3289": " mushroom",
  "3290": " mitten",
  "3291": " invited",
  "3292": " chubby",
  "3293": "atter",
  "3294": " playful",
  "3295": " lit",
  "3296": " envious",
  "3297": " comet",
  "3298": " belt",
  "3299": " Rex",
  "3300": "lph",
  "3301": "comfortable",
  "3302": " yogurt",
  "3303": " wip",
  "3304": " uncomfortable",
  "3305": " leopard",
  "3306": " fluffy",
  "3307": " disappo",
  "3308": " ang",
  "3309": " Emily",
  "3310": "ither",
  "3311": "Bobo",
  "3312": " trucks",
  "3313": " triang",
  "3314": " lizard",
  "3315": " island",
  "3316": " crawled",
  "3317": " compassion",
  "3318": " choose",
  "3319": " cactus",
  "3320": " alligator",
  "3321": " persist",
  "3322": " loop",
  "3323": " cere",
  "3324": " carrots",
  "3325": " rode",
  "3326": " half",
  "3327": " graceful",
  "3328": " fork",
  "3329": " crack",
  "3330": " boats",
  "3331": " bulb",
  "3332": " Sh",
  "3333": " Lulu",
  "3334": " er",
  "3335": "Molly",
  "3336": " speed",
  "3337": " sle",
  "3338": " radio",
  "3339": "asses",
  "3340": " univer",
  "3341": " trunk",
  "3342": " pebble",
  "3343": " goose",
  "3344": " feathers",
  "3345": " caterpillar",
  "3346": " Even",
  "3347": " yoga",
  "3348": " shrimp",
  "3349": " pigeon",
  "3350": " mole",
  "3351": " homes",
  "3352": " desk",
  "3353": "oto",
  "3354": " perform",
  "3355": " dolph",
  "3356": "urkey",
  "3357": " using",
  "3358": " shape",
  "3359": " persistent",
  "3360": " nod",
  "3361": " crystal",
  "3362": " cereal",
  "3363": "cles",
  "3364": " umbrella",
  "3365": " temp",
  "3366": " tire",
  "3367": " rag",
  "3368": " helps",
  "3369": " built",
  "3370": " beetle",
  "3371": " Today",
  "3372": "Their",
  "3373": " vide",
  "3374": " licked",
  "3375": "ellig",
  "3376": "Mama",
  "3377": " tag",
  "3378": " ordinary",
  "3379": " ones",
  "3380": " garage",
  "3381": "anger",
  "3382": " whispered",
  "3383": " spinning",
  "3384": " sleeping",
  "3385": " returned",
  "3386": " locked",
  "3387": " OK",
  "3388": " Jake",
  "3389": " Buzz",
  "3390": "ye",
  "3391": " wheat",
  "3392": " turkey",
  "3393": " cupboard",
  "3394": "pes",
  "3395": " melt",
  "3396": " intellig",
  "3397": " meant",
  "3398": " giving",
  "3399": "esday",
  "3400": "ebook",
  "3401": "cident",
  "3402": " scale",
  "3403": " notebook",
  "3404": " helpless",
  "3405": " enc",
  "3406": " rep",
  "3407": " questions",
  "3408": " question",
  "3409": " judge",
  "3410": " coins",
  "3411": " wire",
  "3412": " sil",
  "3413": " raven",
  "3414": " practiced",
  "3415": " load",
  "3416": " disappointed",
  "3417": " deliver",
  "3418": "Go",
  "3419": " week",
  "3420": " suit",
  "3421": " planet",
  "3422": " jellyfish",
  "3423": "ief",
  "3424": "cut",
  "3425": " mailbox",
  "3426": " lying",
  "3427": " hedge",
  "3428": " case",
  "3429": "ped",
  "3430": "chair",
  "3431": " walks",
  "3432": " libr",
  "3433": "dom",
  "3434": " louder",
  "3435": " celebrate",
  "3436": " rid",
  "3437": " poured",
  "3438": " crawl",
  "3439": " bees",
  "3440": " accident",
  "3441": " yaw",
  "3442": " squash",
  "3443": " pro",
  "3444": " jug",
  "3445": " cob",
  "3446": " alert",
  "3447": "opl",
  "3448": "eropl",
  "3449": " rub",
  "3450": " delight",
  "3451": " compassionate",
  "3452": " chalk",
  "3453": "berries",
  "3454": " walls",
  "3455": " happening",
  "3456": " decide",
  "3457": " angel",
  "3458": " aeropl",
  "3459": "vator",
  "3460": " ticket",
  "3461": " shield",
  "3462": " sailed",
  "3463": " elevator",
  "3464": " compl",
  "3465": " armchair",
  "3466": " ed",
  "3467": " ways",
  "3468": " triangle",
  "3469": " office",
  "3470": " nicely",
  "3471": "web",
  "3472": "pack",
  "3473": " spun",
  "3474": " intelligent",
  "3475": "essie",
  "3476": "atient",
  "3477": " troubled",
  "3478": " stack",
  "3479": " slept",
  "3480": "host",
  "3481": " thread",
  "3482": " cobweb",
  "3483": " acce",
  "3484": "Jane",
  "3485": " spill",
  "3486": " numbers",
  "3487": " deter",
  "3488": " barber",
  "3489": " screen",
  "3490": " mug",
  "3491": "rework",
  "3492": "illa",
  "3493": "ebra",
  "3494": " rod",
  "3495": " lively",
  "3496": " impatient",
  "3497": "pet",
  "3498": " gifted",
  "3499": " ghost",
  "3500": " bicy",
  "3501": " zebra",
  "3502": " wishes",
  "3503": " resc",
  "3504": " harmless",
  "3505": " determ",
  "3506": " Sn",
  "3507": " spend",
  "3508": " pastry",
  "3509": " inse",
  "3510": " enth",
  "3511": " carpet",
  "3512": " sniff",
  "3513": " forward",
  "3514": " football",
  "3515": " create",
  "3516": " cartoon",
  "3517": " boys",
  "3518": "was",
  "3519": "washer",
  "3520": "ulif",
  "3521": "isted",
  "3522": " dishwasher",
  "3523": "ik",
  "3524": " pony",
  "3525": " cost",
  "3526": "usia",
  "3527": " hotel",
  "3528": " enthusia",
  "3529": " counting",
  "3530": " aeroplane",
  "3531": "uliflower",
  "3532": " insect",
  "3533": " harsh",
  "3534": " competitive",
  "3535": " avocado",
  "3536": " unlock",
  "3537": " sink",
  "3538": " polish",
  "3539": " glove",
  "3540": " firework",
  "3541": "quit",
  "3542": " stretch",
  "3543": " forth",
  "3544": " sheet",
  "3545": " saying",
  "3546": " send",
  "3547": " cauliflower",
  "3548": " travel",
  "3549": " stum",
  "3550": " shells",
  "3551": " seal",
  "3552": " poem",
  "3553": " pine",
  "3554": " lights",
  "3555": " laughs",
  "3556": " hoop",
  "3557": " flashlight",
  "3558": "uth",
  "3559": "squit",
  "3560": ",”",
  "3561": " thief",
  "3562": " stranger",
  "3563": " skin",
  "3564": " mosquit",
  "3565": " excite",
  "3566": " cable",
  "3567": " switch",
  "3568": " destro",
  "3569": " behave",
  "3570": "Gra",
  "3571": " wheels",
  "3572": " parade",
  "3573": " added",
  "3574": " Mum",
  "3575": " station",
  "3576": " oy",
  "3577": " fisher",
  "3578": " complet",
  "3579": "ten",
  "3580": "lies",
  "3581": "asing",
  "3582": " scatter",
  "3583": " matt",
  "3584": " fu",
  "3585": " edge",
  "3586": " eventually",
  "3587": " barrel",
  "3588": "aser",
  "3589": " temple",
  "3590": " split",
  "3591": " mosquito",
  "3592": " fireman",
  "3593": " encou",
  "3594": " dreams",
  "3595": " coo",
  "3596": " sneeze",
  "3597": " rubbed",
  "3598": " radish",
  "3599": " olive",
  "3600": " folder",
  "3601": " bounced",
  "3602": "acket",
  "3603": " track",
  "3604": " root",
  "3605": " rice",
  "3606": " bull",
  "3607": " hipp",
  "3608": " golf",
  "3609": " cush",
  "3610": " bushes",
  "3611": " attic",
  "3612": "rage",
  "3613": "Billy",
  "3614": " pun",
  "3615": " melon",
  "3616": " guard",
  "3617": " flame",
  "3618": " weep",
  "3619": " uncle",
  "3620": " tray",
  "3621": " oak",
  "3622": " trap",
  "3623": " stronger",
  "3624": " shut",
  "3625": " scoot",
  "3626": " jacket",
  "3627": " grown",
  "3628": " gir",
  "3629": " decorate",
  "3630": " camp",
  "3631": " bump",
  "3632": " ador",
  "3633": " once",
  "3634": " haircut",
  "3635": " bicycle",
  "3636": "ucet",
  "3637": "arry",
  "3638": " order",
  "3639": " newsp",
  "3640": "uring",
  "3641": "ject",
  "3642": "case",
  "3643": " thu",
  "3644": " staff",
  "3645": " skipped",
  "3646": " hippo",
  "3647": " distant",
  "3648": " Miss",
  "3649": " wallet",
  "3650": " quit",
  "3651": " penguin",
  "3652": " learning",
  "3653": " faucet",
  "3654": " dolphin",
  "3655": " chain",
  "3656": " Toby",
  "3657": " slides",
  "3658": " patch",
  "3659": " adorable",
  "3660": " aut",
  "3661": " Pipp",
  "3662": " mixer",
  "3663": " cleaning",
  "3664": " biggest",
  "3665": "ating",
  "3666": " sandbox",
  "3667": " gor",
  "3668": " fisherman",
  "3669": " Fr",
  "3670": "elery",
  "3671": " tear",
  "3672": " spir",
  "3673": " herb",
  "3674": " glowing",
  "3675": " brothers",
  "3676": " attract",
  "3677": " Tina",
  "3678": "iew",
  "3679": "bul",
  "3680": " ple",
  "3681": " kindness",
  "3682": " impro",
  "3683": " Little",
  "3684": "work",
  "3685": "seum",
  "3686": "iki",
  "3687": " view",
  "3688": " strugg",
  "3689": " destroy",
  "3690": " base",
  "3691": " attractive",
  "3692": "stic",
  "3693": "bulance",
  "3694": " yach",
  "3695": " speak",
  "3696": " spear",
  "3697": " showing",
  "3698": " prep",
  "3699": " museum",
  "3700": " mattress",
  "3701": " cricket",
  "3702": " ambulance",
  "3703": " aw",
  "3704": "ines",
  "3705": "coa",
  "3706": "Jimmy",
  "3707": " video",
  "3708": " growl",
  "3709": " gathered",
  "3710": " themselves",
  "3711": " spirit",
  "3712": " pole",
  "3713": " nurse",
  "3714": " gorilla",
  "3715": " missile",
  "3716": " laser",
  "3717": "head",
  "3718": " yacht",
  "3719": " short",
  "3720": " playground",
  "3721": " celery",
  "3722": "obile",
  "3723": " oyster",
  "3724": " organize",
  "3725": " newspaper",
  "3726": " miner",
  "3727": " led",
  "3728": " enthusiastic",
  "3729": " earth",
  "3730": " determined",
  "3731": " colour",
  "3732": " Rose",
  "3733": "vet",
  "3734": "ushed",
  "3735": "Give",
  "3736": " tummy",
  "3737": " steak",
  "3738": " sort",
  "3739": " screw",
  "3740": " reward",
  "3741": " powder",
  "3742": " marry",
  "3743": " maze",
  "3744": " eraser",
  "3745": " envel",
  "3746": " calling",
  "3747": " Fo",
  "3748": "otter",
  "3749": "dest",
  "3750": " skull",
  "3751": " salt",
  "3752": " rot",
  "3753": " itch",
  "3754": " candle",
  "3755": " bookcase",
  "3756": " bri",
  "3757": " otter",
  "3758": "omobile",
  "3759": "ision",
  "3760": "aged",
  "3761": " yet",
  "3762": " message",
  "3763": " factor",
  "3764": " disappeared",
  "3765": " bandage",
  "3766": " automobile",
  "3767": "htub",
  "3768": " pear",
  "3769": " frame",
  "3770": " Sunny",
  "3771": " post",
  "3772": " club",
  "3773": " bathtub",
  "3774": "urb",
  "3775": "ready",
  "3776": "Jill",
  "3777": " truth",
  "3778": " task",
  "3779": " sweater",
  "3780": " factory",
  "3781": " blackboard",
  "3782": " bin",
  "3783": " bill",
  "3784": "ete",
  "3785": " purse",
  "3786": "time",
  "3787": " wiped",
  "3788": " onion",
  "3789": " hunt",
  "3790": " falls",
  "3791": " enjoying",
  "3792": " already",
  "3793": " Tweet",
  "3794": "coli",
  "3795": "ccoli",
  "3796": "Bye",
  "3797": " sung",
  "3798": " suggest",
  "3799": " raft",
  "3800": " Buzzy",
  "3801": " mule",
  "3802": " cocoa",
  "3803": " cell",
  "3804": "tern",
  "3805": "ital",
  "3806": " serve",
  "3807": " pit",
  "3808": " modest",
  "3809": " library",
  "3810": " knows",
  "3811": " ignorant",
  "3812": " cooking",
  "3813": " cooked",
  "3814": " buttons",
  "3815": " arg",
  "3816": "reek",
  "3817": "per",
  "3818": " pointing",
  "3819": " package",
  "3820": " flea",
  "3821": " fest",
  "3822": " disturb",
  "3823": "spital",
  "3824": "old",
  "3825": "'d",
  "3826": " vest",
  "3827": " hospital",
  "3828": " driving",
  "3829": " creek",
  "3830": "utes",
  "3831": " saus",
  "3832": " pee",
  "3833": " imagine",
  "3834": " hours",
  "3835": " blouse",
  "3836": "lasses",
  "3837": "etty",
  "3838": " sunglasses",
  "3839": " spell",
  "3840": " complete",
  "3841": " billboard",
  "3842": " wife",
  "3843": " tripped",
  "3844": " rise",
  "3845": " itself",
  "3846": " dreamed",
  "3847": "ival",
  "3848": "imney",
  "3849": "aky",
  "3850": "aving",
  "3851": "Well",
  "3852": "Re",
  "3853": " teleph",
  "3854": " surf",
  "3855": " safely",
  "3856": "Fluffy",
  "3857": "?\".",
  "3858": " mem",
  "3859": " mild",
  "3860": " Dan",
  "3861": "nal",
  "3862": "fee",
  "3863": "ffee",
  "3864": " valu",
  "3865": " troph",
  "3866": " telephone",
  "3867": " soar",
  "3868": " rolling",
  "3869": " novel",
  "3870": " makeup",
  "3871": " barking",
  "3872": "ention",
  "3873": " ribb",
  "3874": " festival",
  "3875": "la",
  "3876": "anda",
  "3877": " strawberry",
  "3878": " rubb",
  "3879": " rever",
  "3880": " oats",
  "3881": " film",
  "3882": " cooler",
  "3883": " broccoli",
  "3884": "hic",
  "3885": " vehic",
  "3886": " vi",
  "3887": " ten",
  "3888": " repe",
  "3889": " hurry",
  "3890": " scooter",
  "3891": " por",
  "3892": " pal",
  "3893": " minutes",
  "3894": " boots",
  "3895": "par",
  "3896": "Al",
  "3897": " trophy",
  "3898": " size",
  "3899": " journal",
  "3900": " freez",
  "3901": " cups",
  "3902": " chimney",
  "3903": " V",
  "3904": " trash",
  "3905": " hall",
  "3906": " dive",
  "3907": " bags",
  "3908": " Look",
  "3909": " ow",
  "3910": " palace",
  "3911": " oil",
  "3912": " notice",
  "3913": " early",
  "3914": " either",
  "3915": " bikes",
  "3916": " Kim",
  "3917": " Everywhere",
  "3918": "play",
  "3919": " reading",
  "3920": " coffee",
  "3921": " Poppy",
  "3922": "arian",
  "3923": " wool",
  "3924": " holes",
  "3925": " cushion",
  "3926": " bubble",
  "3927": "nam",
  "3928": " stumbled",
  "3929": " stairs",
  "3930": " ped",
  "3931": " managed",
  "3932": " giggled",
  "3933": " Rob",
  "3934": " pattern",
  "3935": " meadow",
  "3936": " loudly",
  "3937": " grandpa",
  "3938": " envelope",
  "3939": " Birdy",
  "3940": "See",
  "3941": " those",
  "3942": " steps",
  "3943": " skip",
  "3944": " separ",
  "3945": " explain",
  "3946": " city",
  "3947": " Peter",
  "3948": "lu",
  "3949": " sight",
  "3950": " frogs",
  "3951": " coal",
  "3952": " People",
  "3953": " peach",
  "3954": " opens",
  "3955": " ok",
  "3956": " display",
  "3957": " repair",
  "3958": " perm",
  "3959": " means",
  "3960": " fastest",
  "3961": " drain",
  "3962": " Zoom",
  "3963": " thunder",
  "3964": " knock",
  "3965": "umb",
  "3966": "nament",
  "3967": "cing",
  "3968": " porch",
  "3969": " ornament",
  "3970": " hanging",
  "3971": " complain",
  "3972": "keep",
  "3973": "apers",
  "3974": " whenever",
  "3975": " valuable",
  "3976": " ur",
  "3977": " son",
  "3978": " resist",
  "3979": " packed",
  "3980": " math",
  "3981": " inclu",
  "3982": " bathe",
  "3983": " alarm",
  "3984": "come",
  "3985": "ailable",
  "3986": "Is",
  "3987": " trains",
  "3988": " painter",
  "3989": " diary",
  "3990": " attach",
  "3991": "olin",
  "3992": " growing",
  "3993": " rail",
  "3994": " eye",
  "3995": " Bessie",
  "3996": " stops",
  "3997": " shaking",
  "3998": " freezer",
  "3999": " chess",
  "4000": "ilot",
  "4001": "bol",
  "4002": "Joe",
  "4003": " shocked",
  "4004": " five",
  "4005": " drawings",
  "4006": " drawer",
  "4007": "Em",
  "4008": " pirate",
  "4009": " holds",
  "4010": " Co",
  "4011": "ric",
  "4012": " violin",
  "4013": " picking",
  "4014": " often",
  "4015": " men",
  "4016": " kay",
  "4017": " junk",
  "4018": " gear",
  "4019": " check",
  "4020": "ymbol",
  "4021": "xy",
  "4022": " sailor",
  "4023": " names",
  "4024": " marble",
  "4025": " may",
  "4026": " cord",
  "4027": " blin",
  "4028": " available",
  "4029": "ature",
  "4030": " stared",
  "4031": " shrink",
  "4032": " pretending",
  "4033": "place",
  "4034": "ination",
  "4035": "affe",
  "4036": " quiz",
  "4037": " marched",
  "4038": " cardboard",
  "4039": " against",
  "4040": " Kiki",
  "4041": "ugged",
  "4042": " sne",
  "4043": " neat",
  "4044": " excitement",
  "4045": " sparkly",
  "4046": " rules",
  "4047": "te",
  "4048": "ckey",
  "4049": "aroo",
  "4050": "angaroo",
  "4051": " sett",
  "4052": " rescue",
  "4053": " hockey",
  "4054": " handle",
  "4055": " fuel",
  "4056": " airport",
  "4057": " whip",
  "4058": " support",
  "4059": " meeting",
  "4060": " kayak",
  "4061": " cane",
  "4062": "body",
  "4063": " tools",
  "4064": " papers",
  "4065": " medal",
  "4066": " kangaroo",
  "4067": " fireplace",
  "4068": " ext",
  "4069": "low",
  "4070": " letters",
  "4071": " knight",
  "4072": " grand",
  "4073": " giraffe",
  "4074": " gasped",
  "4075": "ured",
  "4076": " gym",
  "4077": " flour",
  "4078": "keeper",
  "4079": " swamp",
  "4080": " pilot",
  "4081": " mummy",
  "4082": " leash",
  "4083": "vision",
  "4084": "ron",
  "4085": "omed",
  "4086": "iest",
  "4087": "ceed",
  "4088": " trail",
  "4089": " thinking",
  "4090": " realised",
  "4091": " improve",
  "4092": " file",
  "4093": "ense",
  "4094": " television",
  "4095": " magaz",
  "4096": " label",
  "4097": "ait",
  "4098": "Little",
  "4099": " super",
  "4100": " practice",
  "4101": " ink",
  "4102": "usie",
  "4103": "ophone",
  "4104": "loo",
  "4105": "igloo",
  "4106": " twirl",
  "4107": " telling",
  "4108": " poked",
  "4109": " opera",
  "4110": " cabinet",
  "4111": " butterflies",
  "4112": " igloo",
  "4113": "Mummy",
  "4114": " rece",
  "4115": " extra",
  "4116": " anywhere",
  "4117": " ahead",
  "4118": " tornado",
  "4119": " tightly",
  "4120": " stretched",
  "4121": " nation",
  "4122": " curt",
  "4123": " beep",
  "4124": " Red",
  "4125": " Are",
  "4126": " succeed",
  "4127": " plates",
  "4128": " beef",
  "4129": " agree",
  "4130": "vice",
  "4131": "riger",
  "4132": "rigerator",
  "4133": "aid",
  "4134": " shovel",
  "4135": " symbol",
  "4136": " object",
  "4137": " listening",
  "4138": " jumps",
  "4139": " curtain",
  "4140": "na",
  "4141": "fast",
  "4142": "aches",
  "4143": "Ow",
  "4144": "!\".",
  "4145": " stom",
  "4146": " raz",
  "4147": " pressed",
  "4148": " pinch",
  "4149": " perfume",
  "4150": " peeked",
  "4151": " panda",
  "4152": " favour",
  "4153": " doesn",
  "4154": " breakfast",
  "4155": " belongs",
  "4156": " baseball",
  "4157": "istol",
  "4158": "Daisy",
  "4159": " tut",
  "4160": " refrigerator",
  "4161": " offered",
  "4162": " mint",
  "4163": " lime",
  "4164": " happier",
  "4165": " chance",
  "4166": "lter",
  "4167": " weigh",
  "4168": " shelter",
  "4169": " ins",
  "4170": " cows",
  "4171": "iron",
  "4172": "astic",
  "4173": " napkin",
  "4174": " favourite",
  "4175": " discovered",
  "4176": " dess",
  "4177": " bathrobe",
  "4178": " Spike",
  "4179": " Betty",
  "4180": " waste",
  "4181": " towers",
  "4182": " lightning",
  "4183": " falling",
  "4184": " disag",
  "4185": "scope",
  "4186": "roscope",
  "4187": "nger",
  "4188": " tutor",
  "4189": " jail",
  "4190": " ceiling",
  "4191": " bookshe",
  "4192": " Olive",
  "4193": " passport",
  "4194": " distance",
  "4195": " anyway",
  "4196": " Dolly",
  "4197": "iches",
  "4198": "ience",
  "4199": " vend",
  "4200": " popped",
  "4201": " magazine",
  "4202": " lawn",
  "4203": " bookshelf",
  "4204": "urnit",
  "4205": "urniture",
  "4206": " trade",
  "4207": " sandwiches",
  "4208": " pistol",
  "4209": " jewelry",
  "4210": " battery",
  "4211": " basketball",
  "4212": " Ru",
  "4213": " Pete",
  "4214": " Here",
  "4215": "yer",
  "4216": "undry",
  "4217": "peedy",
  "4218": "aurant",
  "4219": " separate",
  "4220": " restaurant",
  "4221": " laundry",
  "4222": " furniture",
  "4223": " advice",
  "4224": " Carl",
  "4225": "opus",
  "4226": " theater",
  "4227": " stickers",
  "4228": " prov",
  "4229": " point",
  "4230": " chose",
  "4231": " oct",
  "4232": " Snow",
  "4233": "htray",
  "4234": "gen",
  "4235": "Ouch",
  "4236": " vendor",
  "4237": " razor",
  "4238": " lawyer",
  "4239": " juicy",
  "4240": " ashtray",
  "4241": "ium",
  "4242": "ately",
  "4243": " reverse",
  "4244": " peek",
  "4245": " octopus",
  "4246": " micr",
  "4247": " lotion",
  "4248": "umber",
  "4249": " lip",
  "4250": " lend",
  "4251": " grill",
  "4252": " Grandpa",
  "4253": " Binky",
  "4254": " tub",
  "4255": " roared",
  "4256": " microphone",
  "4257": " leaving",
  "4258": " climbing",
  "4259": " allowed",
  "4260": " ax",
  "4261": " wine",
  "4262": " taller",
  "4263": " stable",
  "4264": " skirt",
  "4265": " cards",
  "4266": "leton",
  "4267": "keleton",
  "4268": " swinging",
  "4269": " slip",
  "4270": " pleased",
  "4271": " imagined",
  "4272": " fog",
  "4273": " carrying",
  "4274": " bury",
  "4275": " bananas",
  "4276": " axe",
  "4277": " Boun",
  "4278": "sity",
  "4279": " problems",
  "4280": " microscope",
  "4281": " happens",
  "4282": " circles",
  "4283": " Zip",
  "4284": " Give",
  "4285": "Wait",
  "4286": "Mr",
  "4287": " raise",
  "4288": " hut",
  "4289": " dreaming",
  "4290": " cliff",
  "4291": " Ow",
  "4292": " iron",
  "4293": "Did",
  "4294": " sweetie",
  "4295": " spoke",
  "4296": " knob",
  "4297": " gro",
  "4298": " unite",
  "4299": " sounded",
  "4300": " rhin",
  "4301": " nature",
  "4302": " leaned",
  "4303": " lid",
  "4304": " dessert",
  "4305": "rmomet",
  "4306": "ionary",
  "4307": " wigg",
  "4308": " vehicle",
  "4309": " sub",
  "4310": " spilled",
  "4311": " silver",
  "4312": " suff",
  "4313": " Where",
  "4314": "rmometer",
  "4315": "res",
  "4316": "ocer",
  "4317": "ictionary",
  "4318": " squirrels",
  "4319": " invite",
  "4320": " inf",
  "4321": " hate",
  "4322": " grape",
  "4323": "oceros",
  "4324": "ison",
  "4325": "fa",
  "4326": "Ch",
  "4327": " wipe",
  "4328": " photo",
  "4329": " pastel",
  "4330": " costume",
  "4331": " blinked",
  "4332": "ogn",
  "4333": " steam",
  "4334": " puddles",
  "4335": " plastic",
  "4336": " mustache",
  "4337": " missing",
  "4338": " lie",
  "4339": " dictionary",
  "4340": "ilet",
  "4341": " rhinoceros",
  "4342": " hunter",
  "4343": " Teddy",
  "4344": "adium",
  "4345": " weather",
  "4346": " toilet",
  "4347": " stadium",
  "4348": " recogn",
  "4349": "stri",
  "4350": "rod",
  "4351": "elcome",
  "4352": "asp",
  "4353": " thermometer",
  "4354": " pair",
  "4355": " obser",
  "4356": " mineral",
  "4357": " introd",
  "4358": " frowned",
  "4359": " claw",
  "4360": " accept",
  "4361": " Mar",
  "4362": "urch",
  "4363": " tease",
  "4364": " prune",
  "4365": " grapes",
  "4366": " excitedly",
  "4367": " Bill",
  "4368": "stairs",
  "4369": "render",
  "4370": " weap",
  "4371": " warned",
  "4372": " skeleton",
  "4373": " helper",
  "4374": " anch",
  "4375": " zipp",
  "4376": " rubber",
  "4377": " fingers",
  "4378": " collec",
  "4379": " suggested",
  "4380": " shouts",
  "4381": " hive",
  "4382": " anchor",
  "4383": " Pippin",
  "4384": "ummer",
  "4385": "aspoon",
  "4386": " sunset",
  "4387": " squeeze",
  "4388": " refused",
  "4389": " prevent",
  "4390": " leak",
  "4391": "icer",
  "4392": "cu",
  "4393": "ations",
  "4394": " windows",
  "4395": " unif",
  "4396": " trem",
  "4397": " stirred",
  "4398": " ostri",
  "4399": " jokes",
  "4400": " hung",
  "4401": " handed",
  "4402": " Speedy",
  "4403": " uniform",
  "4404": " unpack",
  "4405": " surprises",
  "4406": " slipp",
  "4407": " sadly",
  "4408": " meas",
  "4409": " hoping",
  "4410": " caring",
  "4411": "amber",
  "4412": " zoomed",
  "4413": " spoil",
  "4414": " searching",
  "4415": " ignore",
  "4416": " church",
  "4417": " cur",
  "4418": "veal",
  "4419": "ef",
  "4420": " winter",
  "4421": " dancer",
  "4422": " above",
  "4423": " supply",
  "4424": " sofa",
  "4425": " sausage",
  "4426": " riding",
  "4427": " older",
  "4428": " mall",
  "4429": " reveal",
  "4430": " musician",
  "4431": " chasing",
  "4432": " Alice",
  "4433": "asis",
  "4434": " shakes",
  "4435": " rush",
  "4436": " points",
  "4437": " kinds",
  "4438": " chamber",
  "4439": " cudd",
  "4440": " blueberries",
  "4441": "drobe",
  "4442": "alend",
  "4443": " wardrobe",
  "4444": " sprayed",
  "4445": " saving",
  "4446": " rained",
  "4447": " pages",
  "4448": " fixing",
  "4449": " cherries",
  "4450": " calend",
  "4451": " accidentally",
  "4452": " Jazz",
  "4453": "night",
  "4454": "mend",
  "4455": " subway",
  "4456": " shone",
  "4457": " proudly",
  "4458": " infant",
  "4459": " chairs",
  "4460": "iday",
  "4461": " swung",
  "4462": " surrender",
  "4463": " soil",
  "4464": " rake",
  "4465": " putting",
  "4466": " ostrich",
  "4467": " kneel",
  "4468": " finds",
  "4469": " dishes",
  "4470": " apron",
  "4471": "ommend",
  "4472": "Qu",
  "4473": "Grandma",
  "4474": "we",
  "4475": "med",
  "4476": " teaspoon",
  "4477": " snap",
  "4478": " summer",
  "4479": " sent",
  "4480": " respectful",
  "4481": " recommend",
  "4482": " groc",
  "4483": " calendar",
  "4484": " waffles",
  "4485": " starts",
  "4486": " mistakes",
  "4487": " lic",
  "4488": " float",
  "4489": " disappear",
  "4490": " colourful",
  "4491": " brightly",
  "4492": " beans",
  "4493": " bent",
  "4494": " argue",
  "4495": "inarian",
  "4496": "eterinarian",
  "4497": " rushed",
  "4498": " pulls",
  "4499": " panic",
  "4500": " oasis",
  "4501": " menu",
  "4502": " lumber",
  "4503": " goal",
  "4504": " �",
  "4505": "Yay",
  "4506": " veterinarian",
  "4507": " strip",
  "4508": " sticker",
  "4509": " page",
  "4510": " hol",
  "4511": " admire",
  "4512": "isty",
  "4513": " holiday",
  "4514": " Bubbles",
  "4515": " replace",
  "4516": " grabs",
  "4517": " feelings",
  "4518": " comfort",
  "4519": " buckle",
  "4520": " Mike",
  "4521": " Bow",
  "4522": "zag",
  "4523": " regret",
  "4524": " pup",
  "4525": " lives",
  "4526": " Pandy",
  "4527": "Next",
  "4528": "Lisa",
  "4529": " rac",
  "4530": " berry",
  "4531": " Freddy",
  "4532": " Cl",
  "4533": "apping",
  "4534": "Your",
  "4535": " dear",
  "4536": " copper",
  "4537": "igzag",
  "4538": "ecause",
  "4539": "aul",
  "4540": " sniffed",
  "4541": " ribbon",
  "4542": " evening",
  "4543": " Would",
  "4544": "thank",
  "4545": "hero",
  "4546": "ampoo",
  "4547": "aked",
  "4548": "..",
  "4549": " superhero",
  "4550": " human",
  "4551": " fought",
  "4552": "ifi",
  "4553": "alley",
  "4554": " university",
  "4555": " ended",
  "4556": " doors",
  "4557": " crib",
  "4558": " Susie",
  "4559": "happy",
  "4560": "eer",
  "4561": "angu",
  "4562": "Will",
  "4563": " valley",
  "4564": " sigh",
  "4565": " reef",
  "4566": " langu",
  "4567": " claws",
  "4568": "nesday",
  "4569": "imed",
  "4570": "ednesday",
  "4571": " yield",
  "4572": " sneezed",
  "4573": " repeat",
  "4574": " remove",
  "4575": " ranch",
  "4576": " appl",
  "4577": "wards",
  "4578": " shampoo",
  "4579": " monkeys",
  "4580": " license",
  "4581": " incre",
  "4582": " barks",
  "4583": " Next",
  "4584": " pushing",
  "4585": " olives",
  "4586": " brick",
  "4587": " yawned",
  "4588": " tip",
  "4589": " suffer",
  "4590": " squeezed",
  "4591": " hist",
  "4592": " giggle",
  "4593": " castles",
  "4594": " brighter",
  "4595": " breat",
  "4596": "indeer",
  "4597": "Daddy",
  "4598": "Buddy",
  "4599": " crossed",
  "4600": "elvet",
  "4601": "Yuck",
  "4602": " thanks",
  "4603": " reminded",
  "4604": " reindeer",
  "4605": " history",
  "4606": " forgave",
  "4607": " Hel",
  "4608": "uggage",
  "4609": " unhappy",
  "4610": " slippery",
  "4611": " player",
  "4612": " pedal",
  "4613": " luggage",
  "4614": " impressed",
  "4615": " hanger",
  "4616": " delighted",
  "4617": " chickens",
  "4618": " breaks",
  "4619": " bears",
  "4620": " Wednesday",
  "4621": " Ted",
  "4622": " Or",
  "4623": " Mandy",
  "4624": " End",
  "4625": " weapon",
  "4626": " sticky",
  "4627": " softly",
  "4628": " prepare",
  "4629": " fre",
  "4630": "ince",
  "4631": " trusted",
  "4632": " throwing",
  "4633": " sunr",
  "4634": " admired",
  "4635": "ricane",
  "4636": "del",
  "4637": "Ready",
  "4638": " socks",
  "4639": " punish",
  "4640": " classroom",
  "4641": " stamps",
  "4642": " mystery",
  "4643": " letting",
  "4644": " cared",
  "4645": " bumped",
  "4646": " buzz",
  "4647": " apol",
  "4648": " Pat",
  "4649": " tremble",
  "4650": " stud",
  "4651": " heat",
  "4652": " apolog",
  "4653": " zipper",
  "4654": " sunrise",
  "4655": " sudden",
  "4656": " lemons",
  "4657": " examine",
  "4658": " checked",
  "4659": "oe",
  "4660": "men",
  "4661": "aud",
  "4662": "ason",
  "4663": " wre",
  "4664": " pushes",
  "4665": " myself",
  "4666": " model",
  "4667": " luck",
  "4668": "icky",
  "4669": " tuna",
  "4670": " stair",
  "4671": " spade",
  "4672": " matches",
  "4673": " mass",
  "4674": " Ellie",
  "4675": " wisdom",
  "4676": " port",
  "4677": " Zoomy",
  "4678": " pigs",
  "4679": " crow",
  "4680": " country",
  "4681": "erc",
  "4682": " fresh",
  "4683": " drops",
  "4684": " delay",
  "4685": " coats",
  "4686": " clapping",
  "4687": " cherry",
  "4688": " bend",
  "4689": "Alice",
  "4690": " vac",
  "4691": " steel",
  "4692": " starting",
  "4693": " sty",
  "4694": " sparkled",
  "4695": " shivering",
  "4696": " explored",
  "4697": " ener",
  "4698": " Lilly",
  "4699": " Fifi",
  "4700": "year",
  "4701": "cage",
  "4702": " universe",
  "4703": " shoulder",
  "4704": " provide",
  "4705": " planes",
  "4706": " invit",
  "4707": " flood",
  "4708": " flies",
  "4709": " birdcage",
  "4710": " Velvet",
  "4711": "ophie",
  "4712": "inking",
  "4713": "ero",
  "4714": "Mary",
  "4715": " wreck",
  "4716": " smells",
  "4717": " shrugged",
  "4718": " art",
  "4719": " Mrs",
  "4720": " Y",
  "4721": "bor",
  "4722": "arlie",
  "4723": " snowball",
  "4724": " horses",
  "4725": " flapped",
  "4726": " Penny",
  "4727": " Coco",
  "4728": "cond",
  "4729": " twisty",
  "4730": "cuss",
  "4731": "bles",
  "4732": " throws",
  "4733": " stomach",
  "4734": " spots",
  "4735": " snugg",
  "4736": " given",
  "4737": " applaud",
  "4738": "riage",
  "4739": "All",
  "4740": " toe",
  "4741": " somewhere",
  "4742": " second",
  "4743": " harbor",
  "4744": " discuss",
  "4745": " choice",
  "4746": " burned",
  "4747": " beg",
  "4748": " Dog",
  "4749": " rooms",
  "4750": " placed",
  "4751": " mailman",
  "4752": " imagination",
  "4753": " furt",
  "4754": " content",
  "4755": " Sharing",
  "4756": " Big",
  "4757": "uesday",
  "4758": "ement",
  "4759": "chan",
  "4760": " restore",
  "4761": " exerc",
  "4762": " eaten",
  "4763": " Johnny",
  "4764": " Have",
  "4765": " skill",
  "4766": " hills",
  "4767": " calls",
  "4768": " Grace",
  "4769": "Mimi",
  "4770": " tour",
  "4771": " splashing",
  "4772": " minute",
  "4773": " language",
  "4774": " freeze",
  "4775": " fort",
  "4776": " courage",
  "4777": "unday",
  "4778": "eor",
  "4779": "chanic",
  "4780": "Mark",
  "4781": "Emma",
  "4782": " mechanic",
  "4783": " keeping",
  "4784": " hopes",
  "4785": " further",
  "4786": " event",
  "4787": " believed",
  "4788": "hter",
  "4789": " palm",
  "4790": " network",
  "4791": " laughter",
  "4792": " grocery",
  "4793": " floated",
  "4794": " candles",
  "4795": " Sunday",
  "4796": " paid",
  "4797": " chirp",
  "4798": " \n",
  "4799": " prunes",
  "4800": " hurricane",
  "4801": " excla",
  "4802": " Under",
  "4803": " Ro",
  "4804": " Help",
  "4805": "heart",
  "4806": "eorge",
  "4807": "cast",
  "4808": " whisper",
  "4809": " struggle",
  "4810": " streng",
  "4811": " shower",
  "4812": " settle",
  "4813": " scratch",
  "4814": " scold",
  "4815": " offer",
  "4816": " energy",
  "4817": " dem",
  "4818": " apart",
  "4819": " Tuesday",
  "4820": " Elly",
  "4821": "Welcome",
  "4822": " wob",
  "4823": " vacation",
  "4824": " tracks",
  "4825": " sandcast",
  "4826": " lions",
  "4827": " introduce",
  "4828": " insisted",
  "4829": " following",
  "4830": " Hop",
  "4831": "ucture",
  "4832": "ittens",
  "4833": "Sh",
  "4834": " strength",
  "4835": " rabbits",
  "4836": " mention",
  "4837": " aftern",
  "4838": " Fl",
  "4839": " structure",
  "4840": " parts",
  "4841": " nobody",
  "4842": " marriage",
  "4843": " include",
  "4844": " folded",
  "4845": " exclaimed",
  "4846": " bouncing",
  "4847": " alive",
  "4848": " afternoon",
  "4849": " Sk",
  "4850": "raged",
  "4851": "ges",
  "4852": "eration",
  "4853": "Ann",
  "4854": " sweetheart",
  "4855": " prayed",
  "4856": " massage",
  "4857": " x",
  "4858": " vroom",
  "4859": " spike",
  "4860": " soak",
  "4861": " permit",
  "4862": " leather",
  "4863": " hearts",
  "4864": " demand",
  "4865": " chewed",
  "4866": "quest",
  "4867": "ffic",
  "4868": "cer",
  "4869": "Woof",
  "4870": "Before",
  "4871": " neighbour",
  "4872": " inst",
  "4873": " greedy",
  "4874": " Dave",
  "4875": "otten",
  "4876": "osie",
  "4877": "illie",
  "4878": "ah",
  "4879": " sew",
  "4880": " request",
  "4881": " raining",
  "4882": " meowed",
  "4883": " hon",
  "4884": " exper",
  "4885": " bother",
  "4886": " Whenever",
  "4887": " Finny",
  "4888": "uct",
  "4889": "mare",
  "4890": "acked",
  "4891": " racing",
  "4892": " lung",
  "4893": " wags",
  "4894": " traffic",
  "4895": " thumb",
  "4896": " sport",
  "4897": " sailing",
  "4898": " rhy",
  "4899": " planned",
  "4900": " landscape",
  "4901": " equ",
  "4902": " beauty",
  "4903": " badly",
  "4904": " See",
  "4905": " Lee",
  "4906": " Harry",
  "4907": " Bee",
  "4908": "ween",
  "4909": "Jenny",
  "4910": " warn",
  "4911": " poison",
  "4912": " planted",
  "4913": " encourage",
  "4914": " easily",
  "4915": " between",
  "4916": " baking",
  "4917": "xu",
  "4918": "uxu",
  "4919": "thm",
  "4920": " remain",
  "4921": " nightmare",
  "4922": " Owl",
  "4923": " Mummy",
  "4924": "resses",
  "4925": "emember",
  "4926": " whistled",
  "4927": " style",
  "4928": " marbles",
  "4929": " dare",
  "4930": " comf",
  "4931": "arnt",
  "4932": " warning",
  "4933": " si",
  "4934": " rhythm",
  "4935": " operation",
  "4936": " observe",
  "4937": " learnt",
  "4938": " Un",
  "4939": " Hoppy",
  "4940": "reeze",
  "4941": " wagging",
  "4942": " sits",
  "4943": " quite",
  "4944": " ignored",
  "4945": " heads",
  "4946": " cheek",
  "4947": " Bluey",
  "4948": "ories",
  "4949": "lex",
  "4950": "ially",
  "4951": " winning",
  "4952": " upstairs",
  "4953": " sorts",
  "4954": "spec",
  "4955": " yawn",
  "4956": " twisted",
  "4957": " treasures",
  "4958": " solved",
  "4959": " signs",
  "4960": " pirates",
  "4961": " luxu",
  "4962": " expect",
  "4963": " digg",
  "4964": " closely",
  "4965": "specially",
  "4966": "Not",
  "4967": " lemonade",
  "4968": " entered",
  "4969": " blowing",
  "4970": " Mittens",
  "4971": " Is",
  "4972": " Everything",
  "4973": "oral",
  "4974": "ippy",
  "4975": " snuggled",
  "4976": " slap",
  "4977": " row",
  "4978": " news",
  "4979": " mama",
  "4980": " gain",
  "4981": " digging",
  "4982": " Who",
  "4983": " Sm",
  "4984": " ing",
  "4985": "tain",
  "4986": "look",
  "4987": " urge",
  "4988": " strike",
  "4989": " scrat",
  "4990": " Tuna",
  "4991": "redient",
  "4992": "Everyone",
  "4993": "Bl",
  "4994": " teaching",
  "4995": " sandcastle",
  "4996": " paused",
  "4997": " pur",
  "4998": " memory",
  "4999": " ingredient",
  "5000": " growled",
  "5001": " follows",
  "5002": " especially",
  "5003": " Ruby",
  "5004": " Bounce",
  "5005": "xygen",
  "5006": "hest",
  "5007": " weeping",
  "5008": " tug",
  "5009": " moves",
  "5010": " agre",
  "5011": " rang",
  "5012": " enter",
  "5013": " brings",
  "5014": " bowed",
  "5015": " bur",
  "5016": " Spark",
  "5017": "right",
  "5018": "ipping",
  "5019": "Bella",
  "5020": " –",
  "5021": " vanished",
  "5022": " recognize",
  "5023": " pinched",
  "5024": " ingredients",
  "5025": " encouraged",
  "5026": "ipment",
  "5027": " writing",
  "5028": " worms",
  "5029": " shouldn",
  "5030": " shined",
  "5031": " score",
  "5032": " licks",
  "5033": " exercise",
  "5034": " brain",
  "5035": "ucked",
  "5036": "reat",
  "5037": "house",
  "5038": "hood",
  "5039": "avid",
  "5040": " strawberries",
  "5041": " increase",
  "5042": " hers",
  "5043": " equipment",
  "5044": " Lucky",
  "5045": "With",
  "5046": "These",
  "5047": " weight",
  "5048": " web",
  "5049": " vanish",
  "5050": " sprink",
  "5051": " memories",
  "5052": " lined",
  "5053": " invitation",
  "5054": " gaz",
  "5055": " firef",
  "5056": " creatures",
  "5057": " crash",
  "5058": " buried",
  "5059": " Paul",
  "5060": "rec",
  "5061": "ogo",
  "5062": " snail",
  "5063": " sliding",
  "5064": " luxury",
  "5065": " jewels",
  "5066": " hurting",
  "5067": " cub",
  "5068": " washing",
  "5069": " wandered",
  "5070": " sir",
  "5071": " peanuts",
  "5072": " jogged",
  "5073": " jazz",
  "5074": " heel",
  "5075": " dried",
  "5076": " beds",
  "5077": " King",
  "5078": "sterday",
  "5079": "quake",
  "5080": "ops",
  "5081": "ooped",
  "5082": "enry",
  "5083": "esterday",
  "5084": "ari",
  "5085": " simp",
  "5086": " raised",
  "5087": " image",
  "5088": " daisy",
  "5089": " breathe",
  "5090": " backpack",
  "5091": " Sophie",
  "5092": "sed",
  "5093": "ising",
  "5094": "ddy",
  "5095": " waving",
  "5096": " shopkeeper",
  "5097": " puzzles",
  "5098": " price",
  "5099": " poppy",
  "5100": " celebrated",
  "5101": " blink",
  "5102": " acorns",
  "5103": " Toto",
  "5104": " Rosie",
  "5105": "nce",
  "5106": "Today",
  "5107": "Remy",
  "5108": " underground",
  "5109": " pad",
  "5110": " fro",
  "5111": " fireworks",
  "5112": " earthquake",
  "5113": " dressed",
  "5114": " Fox",
  "5115": "izes",
  "5116": "ites",
  "5117": " yucky",
  "5118": " watered",
  "5119": " dresses",
  "5120": "looking",
  "5121": "Le",
  "5122": " stitch",
  "5123": " difference",
  "5124": " Pinky",
  "5125": " Finn",
  "5126": "ups",
  "5127": "queaky",
  "5128": "gie",
  "5129": "ecture",
  "5130": " worse",
  "5131": " toes",
  "5132": " tide",
  "5133": " pulling",
  "5134": " oh",
  "5135": " cutting",
  "5136": " below",
  "5137": "reci",
  "5138": "pted",
  "5139": "aker",
  "5140": "achel",
  "5141": "Because",
  "5142": " punished",
  "5143": " nowhere",
  "5144": " navy",
  "5145": " counter",
  "5146": " conf",
  "5147": " catching",
  "5148": " captain",
  "5149": " ble",
  "5150": " Good",
  "5151": "orted",
  "5152": "oves",
  "5153": "Surpr",
  "5154": " understanding",
  "5155": " shot",
  "5156": " seeing",
  "5157": " manage",
  "5158": " ideas",
  "5159": " disagree",
  "5160": " cakes",
  "5161": " cape",
  "5162": " bouncy",
  "5163": " blood",
  "5164": " attached",
  "5165": " Eventually",
  "5166": "ccer",
  "5167": "apa",
  "5168": "Jen",
  "5169": " spoons",
  "5170": " seats",
  "5171": " rul",
  "5172": " quietly",
  "5173": " prett",
  "5174": " pears",
  "5175": " isn",
  "5176": " exit",
  "5177": " easier",
  "5178": " appreci",
  "5179": " Annie",
  "5180": "mm",
  "5181": " muddy",
  "5182": " lecture",
  "5183": " gifts",
  "5184": " fash",
  "5185": " created",
  "5186": " Lizzy",
  "5187": "Moral",
  "5188": " zero",
  "5189": " soccer",
  "5190": " shouting",
  "5191": " receive",
  "5192": " reaches",
  "5193": " fashion",
  "5194": " deeper",
  "5195": " during",
  "5196": " climbs",
  "5197": " blueberry",
  "5198": " blankets",
  "5199": " attention",
  "5200": " accepted",
  "5201": " Wally",
  "5202": " Tilly",
  "5203": " Qu",
  "5204": "ola",
  "5205": " gloves",
  "5206": " eagerly",
  "5207": " collection",
  "5208": " collected",
  "5209": "ictory",
  "5210": " shock",
  "5211": " release",
  "5212": " protec",
  "5213": " paints",
  "5214": " hadn",
  "5215": " decorations",
  "5216": " Happy",
  "5217": " Baby",
  "5218": "unately",
  "5219": "ship",
  "5220": " worth",
  "5221": " welcomed",
  "5222": " twigs",
  "5223": " snapped",
  "5224": " printed",
  "5225": " kitty",
  "5226": " baked",
  "5227": "ived",
  "5228": "Yum",
  "5229": " winner",
  "5230": " pets",
  "5231": " oxygen",
  "5232": " Millie",
  "5233": "ded",
  "5234": "aggie",
  "5235": "Goodbye",
  "5236": " visited",
  "5237": " skills",
  "5238": " resp",
  "5239": " balan",
  "5240": " Joey",
  "5241": "rin",
  "5242": "kelly",
  "5243": "ety",
  "5244": " vel",
  "5245": " twink",
  "5246": " screams",
  "5247": " potatoes",
  "5248": " ours",
  "5249": " jogging",
  "5250": " flap",
  "5251": " fet",
  "5252": " elephants",
  "5253": " Squeaky",
  "5254": " Sandy",
  "5255": " zigzag",
  "5256": " prints",
  "5257": " instr",
  "5258": " drinks",
  "5259": " Zara",
  "5260": " Charlie",
  "5261": "rr",
  "5262": "do",
  "5263": "anges",
  "5264": "Surprise",
  "5265": "Fred",
  "5266": " velvet",
  "5267": " since",
  "5268": " experience",
  "5269": " east",
  "5270": " Snowy",
  "5271": " Hope",
  "5272": " Gogo",
  "5273": " Alex",
  "5274": "undred",
  "5275": "sit",
  "5276": "ips",
  "5277": "Bobby",
  "5278": " straight",
  "5279": " pitch",
  "5280": " kingdom",
  "5281": " hundred",
  "5282": " destroyed",
  "5283": " bites",
  "5284": " acted",
  "5285": " Bo",
  "5286": "ssible",
  "5287": "omeday",
  "5288": "isses",
  "5289": "ction",
  "5290": "chie",
  "5291": "'ve",
  "5292": " watches",
  "5293": " ruler",
  "5294": " fallen",
  "5295": "va",
  "5296": "aded",
  "5297": " safari",
  "5298": " remained",
  "5299": " officer",
  "5300": " mixing",
  "5301": " laid",
  "5302": " kisses",
  "5303": " Slow",
  "5304": " God",
  "5305": " Each",
  "5306": "sters",
  "5307": "icing",
  "5308": "ding",
  "5309": "Mandy",
  "5310": " victory",
  "5311": " twirled",
  "5312": " trapped",
  "5313": " scolded",
  "5314": " someday",
  "5315": " known",
  "5316": " kicking",
  "5317": " drinking",
  "5318": " bleed",
  "5319": " Skelly",
  "5320": " Rock",
  "5321": " Its",
  "5322": "vest",
  "5323": "fortunately",
  "5324": "akes",
  "5325": " sizes",
  "5326": " pupil",
  "5327": " muffins",
  "5328": " measured",
  "5329": " married",
  "5330": " grin",
  "5331": " cartoons",
  "5332": " breeze",
  "5333": " Pip",
  "5334": "kins",
  "5335": "Ha",
  "5336": "Blue",
  "5337": " zipped",
  "5338": " tore",
  "5339": " ringing",
  "5340": " plays",
  "5341": " pra",
  "5342": " hits",
  "5343": " girls",
  "5344": " forgotten",
  "5345": " fed",
  "5346": " brus",
  "5347": " Danny",
  "5348": "une",
  "5349": "ining",
  "5350": "ents",
  "5351": " urged",
  "5352": " trave",
  "5353": " skipping",
  "5354": " petals",
  "5355": " marching",
  "5356": " breaking",
  "5357": " Papa",
  "5358": "ring",
  "5359": " tomatoes",
  "5360": " simple",
  "5361": " revealed",
  "5362": " lips",
  "5363": " Su",
  "5364": " Rachel",
  "5365": "ored",
  "5366": "ne",
  "5367": " sorting",
  "5368": " selling",
  "5369": " poking",
  "5370": " pies",
  "5371": " napping",
  "5372": " golden",
  "5373": " fields",
  "5374": " dared",
  "5375": " alright",
  "5376": " David",
  "5377": " shed",
  "5378": " setting",
  "5379": " scattered",
  "5380": " sip",
  "5381": " peaches",
  "5382": " meow",
  "5383": " gazed",
  "5384": "ishing",
  "5385": "indy",
  "5386": "iers",
  "5387": "aped",
  "5388": " tong",
  "5389": " studied",
  "5390": " slice",
  "5391": " Tony",
  "5392": " Green",
  "5393": "enty",
  "5394": "Bu",
  "5395": " voices",
  "5396": " tremb",
  "5397": " soldiers",
  "5398": " rested",
  "5399": " received",
  "5400": " perfectly",
  "5401": " patterns",
  "5402": " nails",
  "5403": " hurried",
  "5404": " highest",
  "5405": " cras",
  "5406": " bricks",
  "5407": " bones",
  "5408": " Je",
  "5409": " Before",
  "5410": " Ab",
  "5411": "choo",
  "5412": " whistling",
  "5413": " trembling",
  "5414": " spit",
  "5415": " melted",
  "5416": " guessed",
  "5417": " allow",
  "5418": " Maria",
  "5419": " Mo",
  "5420": " George",
  "5421": "osed",
  "5422": "Cat",
  "5423": " wiggle",
  "5424": " strang",
  "5425": " mittens",
  "5426": " invest",
  "5427": " famil",
  "5428": " chewing",
  "5429": " appear",
  "5430": " Someone",
  "5431": " Follow",
  "5432": " Chicky",
  "5433": " unlocked",
  "5434": " surround",
  "5435": " stuffed",
  "5436": " season",
  "5437": " quack",
  "5438": " printer",
  "5439": " marks",
  "5440": " mice",
  "5441": " keys",
  "5442": " investig",
  "5443": " disagreed",
  "5444": " bye",
  "5445": " Later",
  "5446": "izing",
  "5447": "Tr",
  "5448": " floating",
  "5449": " Froggy",
  "5450": "sing",
  "5451": "ores",
  "5452": "igi",
  "5453": "ids",
  "5454": " west",
  "5455": " six",
  "5456": " resting",
  "5457": " mentioned",
  "5458": " esc",
  "5459": " May",
  "5460": " Am",
  "5461": "ther",
  "5462": "plash",
  "5463": "izard",
  "5464": "bug",
  "5465": "boo",
  "5466": "aved",
  "5467": "Momo",
  "5468": "Happy",
  "5469": "!'",
  "5470": " stealing",
  "5471": " pebbles",
  "5472": " none",
  "5473": " motion",
  "5474": " measuring",
  "5475": " importance",
  "5476": " hated",
  "5477": " firemen",
  "5478": " fetch",
  "5479": " bab",
  "5480": " These",
  "5481": " Ste",
  "5482": " Henry",
  "5483": "cus",
  "5484": "Really",
  "5485": " supposed",
  "5486": " slapped",
  "5487": " safety",
  "5488": " investigate",
  "5489": " colours",
  "5490": " babies",
  "5491": " Pippa",
  "5492": "igail",
  "5493": "anna",
  "5494": " waist",
  "5495": " tonight",
  "5496": " strangers",
  "5497": " pillows",
  "5498": " emer",
  "5499": " trips",
  "5500": " sneak",
  "5501": " silence",
  "5502": " shadows",
  "5503": " secrets",
  "5504": " playtime",
  "5505": " mouths",
  "5506": " kneeled",
  "5507": " inch",
  "5508": " ago",
  "5509": "omas",
  "5510": "medi",
  "5511": "ission",
  "5512": "hello",
  "5513": " tucked",
  "5514": " sore",
  "5515": " mister",
  "5516": " lines",
  "5517": " grant",
  "5518": " brid",
  "5519": " Dare",
  "5520": "oke",
  "5521": "mediately",
  "5522": "hew",
  "5523": " wizard",
  "5524": " strings",
  "5525": " served",
  "5526": " permission",
  "5527": " herbs",
  "5528": " flat",
  "5529": " fishing",
  "5530": " burning",
  "5531": " bringing",
  "5532": " beamed",
  "5533": " bang",
  "5534": " appro",
  "5535": " spaceship",
  "5536": " muscles",
  "5537": " lets",
  "5538": " admir",
  "5539": "Emily",
  "5540": " thrill",
  "5541": " sparkling",
  "5542": " sorted",
  "5543": " praised",
  "5544": " pastries",
  "5545": " matched",
  "5546": " knelt",
  "5547": " hesit",
  "5548": " contest",
  "5549": " chores",
  "5550": " bridges",
  "5551": " area",
  "5552": " achie",
  "5553": "walk",
  "5554": "antly",
  "5555": " works",
  "5556": " vet",
  "5557": " teasing",
  "5558": " moments",
  "5559": " collecting",
  "5560": " Smith",
  "5561": " Gigi",
  "5562": "rs",
  "5563": "oved",
  "5564": "ler",
  "5565": "hind",
  "5566": "Sammy",
  "5567": "Dan",
  "5568": "Bird",
  "5569": " tongue",
  "5570": " threat",
  "5571": " stripes",
  "5572": " relaxed",
  "5573": " obe",
  "5574": " dads",
  "5575": " curled",
  "5576": " Liz",
  "5577": " Ho",
  "5578": " Bug",
  "5579": " An",
  "5580": "utter",
  "5581": "ues",
  "5582": " theirs",
  "5583": " sidewalk",
  "5584": " scratched",
  "5585": " ripped",
  "5586": " result",
  "5587": " pride",
  "5588": " piles",
  "5589": " lands",
  "5590": " eight",
  "5591": " crunch",
  "5592": " ordered",
  "5593": " oranges",
  "5594": " nicer",
  "5595": " item",
  "5596": " buzzing",
  "5597": "oming",
  "5598": "embers",
  "5599": "Would",
  "5600": "Tw",
  "5601": " wink",
  "5602": " siren",
  "5603": " remembers",
  "5604": " pedals",
  "5605": " opin",
  "5606": " obey",
  "5607": " machines",
  "5608": " keeps",
  "5609": " crawling",
  "5610": " brushes",
  "5611": " Rocky",
  "5612": " Jul",
  "5613": " Beep",
  "5614": "zing",
  "5615": "bbie",
  "5616": "allen",
  "5617": " waits",
  "5618": " turning",
  "5619": " settled",
  "5620": " pearl",
  "5621": " monsters",
  "5622": " headed",
  "5623": " bloomed",
  "5624": " Star",
  "5625": " Rabbit",
  "5626": " First",
  "5627": "uture",
  "5628": "usty",
  "5629": "ishes",
  "5630": "irts",
  "5631": "gency",
  "5632": "eep",
  "5633": "Ok",
  "5634": "!\",",
  "5635": " writes",
  "5636": " whatever",
  "5637": " warmth",
  "5638": " tickets",
  "5639": " shopping",
  "5640": " playroom",
  "5641": " melting",
  "5642": " ladybug",
  "5643": " future",
  "5644": " challen",
  "5645": " behaved",
  "5646": " beside",
  "5647": " Sky",
  "5648": " Not",
  "5649": "iggly",
  "5650": "Leo",
  "5651": "\",",
  "5652": " youth",
  "5653": " touching",
  "5654": " sprinkles",
  "5655": " shooting",
  "5656": " foods",
  "5657": " escaped",
  "5658": " Lola",
  "5659": " James",
  "5660": " Frog",
  "5661": " Boo",
  "5662": "ud",
  "5663": "ena",
  "5664": " wonders",
  "5665": " thrilled",
  "5666": " steep",
  "5667": " sneaky",
  "5668": " guy",
  "5669": " chef",
  "5670": " Both",
  "5671": "please",
  "5672": "osity",
  "5673": "Mmm",
  "5674": "First",
  "5675": "Boo",
  "5676": " slim",
  "5677": " kindly",
  "5678": " honk",
  "5679": " dire",
  "5680": " comforted",
  "5681": " bravely",
  "5682": " Aunt",
  "5683": "use",
  "5684": "nie",
  "5685": "irring",
  "5686": "Somet",
  "5687": " yesterday",
  "5688": " spiders",
  "5689": " sisters",
  "5690": " immediately",
  "5691": " glitter",
  "5692": " gust",
  "5693": " doggy",
  "5694": " discovery",
  "5695": " Something",
  "5696": " Like",
  "5697": "mother",
  "5698": "ides",
  "5699": "ctly",
  "5700": " soaked",
  "5701": " polished",
  "5702": " loose",
  "5703": " disturbed",
  "5704": " appreciate",
  "5705": " answers",
  "5706": " amazement",
  "5707": " Maggie",
  "5708": " Bouncy",
  "5709": "fied",
  "5710": "Cl",
  "5711": " zookeeper",
  "5712": " wanting",
  "5713": " tricked",
  "5714": " tickle",
  "5715": " slimy",
  "5716": " sled",
  "5717": " sausages",
  "5718": " rings",
  "5719": " pupp",
  "5720": " presents",
  "5721": " lick",
  "5722": " gained",
  "5723": " expected",
  "5724": " eats",
  "5725": " clearing",
  "5726": " Once",
  "5727": "ppers",
  "5728": "Yummy",
  "5729": "Remember",
  "5730": " prec",
  "5731": " hi",
  "5732": " flav",
  "5733": " decorated",
  "5734": " begged",
  "5735": " Rover",
  "5736": " Out",
  "5737": " Kate",
  "5738": " Birdie",
  "5739": " Always",
  "5740": "zen",
  "5741": "riends",
  "5742": "ays",
  "5743": "Un",
  "5744": "Ah",
  "5745": " zooming",
  "5746": " tastes",
  "5747": " tasks",
  "5748": " staying",
  "5749": " stirring",
  "5750": " rocked",
  "5751": " owned",
  "5752": " organizing",
  "5753": " cuddled",
  "5754": " continue",
  "5755": " chases",
  "5756": " broom",
  "5757": " Suzy",
  "5758": " Beth",
  "5759": " Ally",
  "5760": "umes",
  "5761": "Or",
  "5762": "Have",
  "5763": " stare",
  "5764": " spending",
  "5765": " prepared",
  "5766": " firefight",
  "5767": " emergency",
  "5768": " eff",
  "5769": " dragons",
  "5770": " comple",
  "5771": " catches",
  "5772": " Hoot",
  "5773": " Dr",
  "5774": " Clara",
  "5775": "xture",
  "5776": "ien",
  "5777": "Meow",
  "5778": " texture",
  "5779": " snowballs",
  "5780": " seems",
  "5781": " rocking",
  "5782": " ribbons",
  "5783": " happiest",
  "5784": " frozen",
  "5785": " bottles",
  "5786": "joyed",
  "5787": "ided",
  "5788": "hee",
  "5789": "Ro",
  "5790": " polishing",
  "5791": " possible",
  "5792": " overjoyed",
  "5793": " ourselves",
  "5794": " minerals",
  "5795": " families",
  "5796": " cones",
  "5797": " awe",
  "5798": " argued",
  "5799": " Slowly",
  "5800": " Squ",
  "5801": "unnies",
  "5802": "Ella",
  "5803": " wooden",
  "5804": " twin",
  "5805": " struggled",
  "5806": " spraying",
  "5807": " smallest",
  "5808": " sighs",
  "5809": " roots",
  "5810": " precious",
  "5811": " opinion",
  "5812": " frost",
  "5813": " drums",
  "5814": " dinosaurs",
  "5815": " chirped",
  "5816": " bleeding",
  "5817": " beat",
  "5818": " Water",
  "5819": " Put",
  "5820": " Did",
  "5821": "loe",
  "5822": "Eventually",
  "5823": " studying",
  "5824": " sting",
  "5825": " grinned",
  "5826": " effort",
  "5827": " dusty",
  "5828": " crunchy",
  "5829": " costumes",
  "5830": " bunnies",
  "5831": " boo",
  "5832": " approached",
  "5833": " Wiggly",
  "5834": " Splash",
  "5835": " Abby",
  "5836": "lowers",
  "5837": "ashed",
  "5838": "Ollie",
  "5839": "Andy",
  "5840": "'.",
  "5841": " rule",
  "5842": " rele",
  "5843": " pots",
  "5844": " peel",
  "5845": " neighborhood",
  "5846": " loving",
  "5847": " insist",
  "5848": " heroes",
  "5849": " grey",
  "5850": " anytime",
  "5851": " Pepper",
  "5852": " Prin",
  "5853": " Being",
  "5854": " Abigail",
  "5855": "ino",
  "5856": "Miss",
  "5857": ".'",
  "5858": " struck",
  "5859": " sparkle",
  "5860": " rides",
  "5861": " reply",
  "5862": " peppers",
  "5863": " panc",
  "5864": " pause",
  "5865": " leader",
  "5866": " crashed",
  "5867": " belly",
  "5868": " apologize",
  "5869": " agreement",
  "5870": " admiring",
  "5871": " acting",
  "5872": " Stitch",
  "5873": "urry",
  "5874": "ica",
  "5875": "ib",
  "5876": "Peter",
  "5877": " shirts",
  "5878": " safer",
  "5879": " opening",
  "5880": " naps",
  "5881": " instruct",
  "5882": " darker",
  "5883": " completed",
  "5884": " arrive",
  "5885": " Mat",
  "5886": " Cra",
  "5887": " Behind",
  "5888": "ities",
  "5889": "ira",
  "5890": "aws",
  "5891": " worker",
  "5892": " woof",
  "5893": " stretching",
  "5894": " sneaked",
  "5895": " refuse",
  "5896": " recognized",
  "5897": " planets",
  "5898": " matching",
  "5899": " helpers",
  "5900": " helmets",
  "5901": " glowed",
  "5902": " frosting",
  "5903": " folding",
  "5904": " El",
  "5905": "isten",
  "5906": "iggy",
  "5907": "Sometimes",
  "5908": "Johnny",
  "5909": "Jake",
  "5910": " yelling",
  "5911": " weeks",
  "5912": " swims",
  "5913": " succeeded",
  "5914": " smiley",
  "5915": " scru",
  "5916": " sadness",
  "5917": " sides",
  "5918": " released",
  "5919": " prettiest",
  "5920": " penguins",
  "5921": " noon",
  "5922": " neighbors",
  "5923": " hugging",
  "5924": " gathering",
  "5925": " flags",
  "5926": " dot",
  "5927": " cobwebs",
  "5928": " Bree",
  "5929": " wid",
  "5930": " teaches",
  "5931": " sticking",
  "5932": " staring",
  "5933": " sparkles",
  "5934": " scaring",
  "5935": " realize",
  "5936": " hops",
  "5937": " hissed",
  "5938": " hen",
  "5939": " gaze",
  "5940": " downstairs",
  "5941": " decides",
  "5942": " cuts",
  "5943": " buckets",
  "5944": " brushed",
  "5945": " bare",
  "5946": " Mix",
  "5947": " Jenna",
  "5948": " X",
  "5949": "zes",
  "5950": "esome",
  "5951": "Fr",
  "5952": " wondering",
  "5953": " wherever",
  "5954": " surrounded",
  "5955": " roads",
  "5956": " rainbows",
  "5957": " peered",
  "5958": " paintings",
  "5959": " horns",
  "5960": " hardly",
  "5961": " buildings",
  "5962": " Whist",
  "5963": " Thomas",
  "5964": " Remember",
  "5965": " Jeff",
  "5966": "ho",
  "5967": "allow",
  "5968": "Sp",
  "5969": "Silly",
  "5970": "Rex",
  "5971": "During",
  "5972": " weighed",
  "5973": " struggling",
  "5974": " seesaw",
  "5975": " scooped",
  "5976": " robb",
  "5977": " respons",
  "5978": " limes",
  "5979": " gran",
  "5980": " goodnight",
  "5981": " contain",
  "5982": " claps",
  "5983": " cough",
  "5984": " bedtime",
  "5985": " awesome",
  "5986": " agrees",
  "5987": " actually",
  "5988": " actions",
  "5989": " Moon",
  "5990": " Love",
  "5991": " Lou",
  "5992": " Frank",
  "5993": "oll",
  "5994": "iggie",
  "5995": "amie",
  "5996": "ales",
  "5997": "Ex",
  "5998": "Ducky",
  "5999": " splashes",
  "6000": " situ",
  "6001": " radishes",
  "6002": " powers",
  "6003": " loaded",
  "6004": " items",
  "6005": " grandmother",
  "6006": " forks",
  "6007": " fault",
  "6008": " diving",
  "6009": " demanded",
  "6010": " curiosity",
  "6011": " boom",
  "6012": " balancing",
  "6013": " apologized",
  "6014": "ley",
  "6015": "...",
  "6016": " toss",
  "6017": " talent",
  "6018": " soared",
  "6019": " shrug",
  "6020": " repeated",
  "6021": " poems",
  "6022": " pencils",
  "6023": " patience",
  "6024": " packing",
  "6025": " forgi",
  "6026": " fasc",
  "6027": " copy",
  "6028": " buses",
  "6029": " awake",
  "6030": " Leave",
  "6031": " Ava",
  "6032": "lier",
  "6033": "inkle",
  "6034": "ana",
  "6035": "Whiskers",
  "6036": "Ru",
  "6037": "Fo",
  "6038": " wiggled",
  "6039": " whose",
  "6040": " uses",
  "6041": " traveled",
  "6042": " removed",
  "6043": " refres",
  "6044": " phot",
  "6045": " instructions",
  "6046": " dragged",
  "6047": "guing",
  "6048": "anging",
  "6049": "Grace",
  "6050": "Chirpy",
  "6051": " wins",
  "6052": " tugged",
  "6053": " slam",
  "6054": " shivered",
  "6055": " rolls",
  "6056": " roaring",
  "6057": " recorded",
  "6058": " parties",
  "6059": " movies",
  "6060": " kicks",
  "6061": " homework",
  "6062": " exa",
  "6063": " earlier",
  "6064": " drives",
  "6065": " cans",
  "6066": " begin",
  "6067": " becoming",
  "6068": " Uncle",
  "6069": " Milly",
  "6070": " Ju",
  "6071": " Dizzy",
  "6072": " Biggie",
  "6073": "you",
  "6074": "usan",
  "6075": "oys",
  "6076": "ora",
  "6077": "oh",
  "6078": "ivity",
  "6079": "Mar",
  "6080": " teased",
  "6081": " scrubbed",
  "6082": " sings",
  "6083": " protected",
  "6084": " pouring",
  "6085": " petted",
  "6086": " patted",
  "6087": " mountains",
  "6088": " misses",
  "6089": " lap",
  "6090": " included",
  "6091": " fascin",
  "6092": " curly",
  "6093": " crabs",
  "6094": " company",
  "6095": " comfy",
  "6096": " bars",
  "6097": " arguing",
  "6098": " Zigzag",
  "6099": " Steve",
  "6100": " Gr",
  "6101": " Chew",
  "6102": "sses",
  "6103": "bie",
  "6104": "True",
  "6105": "Toby",
  "6106": "Rob",
  "6107": " wobbled",
  "6108": " sweeties",
  "6109": " steady",
  "6110": " screaming",
  "6111": " quarreling",
  "6112": " pockets",
  "6113": " maker",
  "6114": " complained",
  "6115": " beard",
  "6116": " Stop",
  "6117": " Josh",
  "6118": "ibb",
  "6119": "gers",
  "6120": "bl",
  "6121": "amb",
  "6122": "Tiny",
  "6123": "Harry",
  "6124": "Benny",
  "6125": " tallest",
  "6126": " snakes",
  "6127": " rubbing",
  "6128": " prayer",
  "6129": " peas",
  "6130": " ma",
  "6131": " learns",
  "6132": " gems",
  "6133": " eagle",
  "6134": " draws",
  "6135": " cuddle",
  "6136": " caut",
  "6137": " bowls",
  "6138": " ann",
  "6139": " Robby",
  "6140": " Hippy",
  "6141": " Because",
  "6142": "ustom",
  "6143": "izzie",
  "6144": "Stay",
  "6145": "Fine",
  "6146": " written",
  "6147": " visiting",
  "6148": " united",
  "6149": " third",
  "6150": " tim",
  "6151": " sunlight",
  "6152": " seas",
  "6153": " rip",
  "6154": " project",
  "6155": " neighbourhood",
  "6156": " napkins",
  "6157": " granted",
  "6158": " bunch",
  "6159": " Woof",
  "6160": " Watch",
  "6161": " Jan",
  "6162": " By",
  "6163": " Bark",
  "6164": "”.",
  "6165": "uke",
  "6166": "compl",
  "6167": "affes",
  "6168": "Watch",
  "6169": "Luna",
  "6170": " vehicles",
  "6171": " swooped",
  "6172": " soaring",
  "6173": " shelves",
  "6174": " ruin",
  "6175": " replaced",
  "6176": " protecting",
  "6177": " prop",
  "6178": " padd",
  "6179": " loading",
  "6180": " lily",
  "6181": " introduc",
  "6182": " goals",
  "6183": " giraffes",
  "6184": " curtains",
  "6185": " challenge",
  "6186": " custom",
  "6187": " cent",
  "6188": " cash",
  "6189": " barely",
  "6190": " accompl",
  "6191": " Woo",
  "6192": " Welcome",
  "6193": " Squirrel",
  "6194": " Cindy",
  "6195": " Buggy",
  "6196": " Abbie",
  "6197": "uest",
  "6198": "uckily",
  "6199": "uly",
  "6200": "nies",
  "6201": "atie",
  "6202": "Polly",
  "6203": "Achoo",
  "6204": " winked",
  "6205": " purred",
  "6206": " pigeons",
  "6207": " outdo",
  "6208": " ornaments",
  "6209": " librarian",
  "6210": " knights",
  "6211": " gotten",
  "6212": " fairies",
  "6213": " explorers",
  "6214": " examined",
  "6215": " delivered",
  "6216": " complaining",
  "6217": " blows",
  "6218": " applauded",
  "6219": " adding",
  "6220": " Wink",
  "6221": " Quack",
  "6222": "neath",
  "6223": "isdom",
  "6224": "dam",
  "6225": "Paul",
  "6226": " wed",
  "6227": " truly",
  "6228": " refle",
  "6229": " reaching",
  "6230": " policeman",
  "6231": " patiently",
  "6232": " glasses",
  "6233": " guest",
  "6234": " flutter",
  "6235": " exactly",
  "6236": " dar",
  "6237": " chat",
  "6238": " cause",
  "6239": " Skip",
  "6240": " Quick",
  "6241": " Pup",
  "6242": " However",
  "6243": " Foxy",
  "6244": "umm",
  "6245": "lay",
  "6246": "fl",
  "6247": "Uh",
  "6248": "Susie",
  "6249": "Pete",
  "6250": "James",
  "6251": " tables",
  "6252": " sweat",
  "6253": " speaking",
  "6254": " pretends",
  "6255": " pointy",
  "6256": " perched",
  "6257": " pennies",
  "6258": " dipped",
  "6259": " cracked",
  "6260": " circus",
  "6261": " Me",
  "6262": " Lena",
  "6263": " Brownie",
  "6264": "fus",
  "6265": "ern",
  "6266": "Hold",
  "6267": "George",
  "6268": "Ew",
  "6269": " wasted",
  "6270": " videos",
  "6271": " usual",
  "6272": " responsible",
  "6273": " requested",
  "6274": " remote",
  "6275": " prettier",
  "6276": " plenty",
  "6277": " photos",
  "6278": " outdoors",
  "6279": " onwards",
  "6280": " knocks",
  "6281": " keeper",
  "6282": " growls",
  "6283": " entire",
  "6284": " crumb",
  "6285": " closes",
  "6286": " changing",
  "6287": " cashier",
  "6288": " batteries",
  "6289": " baker",
  "6290": " Want",
  "6291": " Keep",
  "6292": "son",
  "6293": "bbing",
  "6294": "araway",
  "6295": "ammy",
  "6296": "Some",
  "6297": "Our",
  "6298": " younger",
  "6299": " wears",
  "6300": " wound",
  "6301": " valued",
  "6302": " vines",
  "6303": " twirling",
  "6304": " teamwork",
  "6305": " tails",
  "6306": " spat",
  "6307": " promises",
  "6308": " logs",
  "6309": " fears",
  "6310": " faraway",
  "6311": " chirping",
  "6312": " camping",
  "6313": " Zoe",
  "6314": " Turtle",
  "6315": " Sw",
  "6316": " Susan",
  "6317": " Dino",
  "6318": " Blink",
  "6319": "umble",
  "6320": "uctantly",
  "6321": "lle",
  "6322": "int",
  "6323": "avi",
  "6324": "arter",
  "6325": "angled",
  "6326": "ados",
  "6327": "Poppy",
  "6328": "For",
  "6329": "Charlie",
  "6330": "Bunny",
  "6331": " yells",
  "6332": " wedding",
  "6333": " stays",
  "6334": " sneezing",
  "6335": " smarter",
  "6336": " pastels",
  "6337": " knees",
  "6338": " joked",
  "6339": " inviting",
  "6340": " giggling",
  "6341": " froze",
  "6342": " fir",
  "6343": " bows",
  "6344": " Friends",
  "6345": "  ",
  "6346": "ueen",
  "6347": "sm",
  "6348": "rol",
  "6349": "oline",
  "6350": "jam",
  "6351": "eah",
  "6352": "agull",
  "6353": "Thanks",
  "6354": "Shh",
  "6355": "Queen",
  "6356": "Mike",
  "6357": "?\",",
  "6358": " wobb",
  "6359": " waiter",
  "6360": " villag",
  "6361": " tires",
  "6362": " startled",
  "6363": " squares",
  "6364": " solut",
  "6365": " satis",
  "6366": " practicing",
  "6367": " lollipops",
  "6368": " listens",
  "6369": " knots",
  "6370": " guns",
  "6371": " dam",
  "6372": " brand",
  "6373": " avocados",
  "6374": " Ziggy",
  "6375": " Mixy",
  "6376": " Everyday",
  "6377": "wh",
  "6378": "dies",
  "6379": "aver",
  "6380": "Time",
  "6381": " yourselves",
  "6382": " villagers",
  "6383": " vent",
  "6384": " underneath",
  "6385": " traded",
  "6386": " sunflowers",
  "6387": " snowfl",
  "6388": " sights",
  "6389": " scratches",
  "6390": " reminder",
  "6391": " pens",
  "6392": " owners",
  "6393": " onions",
  "6394": " masks",
  "6395": " mes",
  "6396": " entr",
  "6397": " destination",
  "6398": " died",
  "6399": " creation",
  "6400": " candies",
  "6401": " caused",
  "6402": " buzzed",
  "6403": " biting",
  "6404": " Wisdom",
  "6405": " Spring",
  "6406": " Sorry",
  "6407": " Paws",
  "6408": " Chloe",
  "6409": " Ball",
  "6410": "ners",
  "6411": "indr",
  "6412": "inda",
  "6413": "eath",
  "6414": "Dog",
  "6415": "Buzz",
  "6416": "...\"",
  "6417": " weren",
  "6418": " towels",
  "6419": " spong",
  "6420": " situation",
  "6421": " raindr",
  "6422": " mushrooms",
  "6423": " mane",
  "6424": " mast",
  "6425": " lungs",
  "6426": " lied",
  "6427": " lamb",
  "6428": " hides",
  "6429": " firm",
  "6430": " fascinated",
  "6431": " dolphins",
  "6432": " crept",
  "6433": " beneath",
  "6434": " airpl",
  "6435": " Po",
  "6436": " Matt",
  "6437": " Chr",
  "6438": " Bye",
  "6439": " 1",
  "6440": "laire",
  "6441": "go",
  "6442": "Unfortunately",
  "6443": "Tina",
  "6444": "Out",
  "6445": " stole",
  "6446": " squeal",
  "6447": " slammed",
  "6448": " rubs",
  "6449": " reluctantly",
  "6450": " reflection",
  "6451": " puppet",
  "6452": " passing",
  "6453": " pout",
  "6454": " observed",
  "6455": " figured",
  "6456": " feeding",
  "6457": " farther",
  "6458": " earn",
  "6459": " deser",
  "6460": " confl",
  "6461": " achieve",
  "6462": " Two",
  "6463": " Tree",
  "6464": " Sure",
  "6465": " Ray",
  "6466": " Hug",
  "6467": " For",
  "6468": " Catty",
  "6469": " Ant",
  "6470": "tuce",
  "6471": "seek",
  "6472": "njoy",
  "6473": "annah",
  "6474": "Zoom",
  "6475": "Bad",
  "6476": " timer",
  "6477": " supplies",
  "6478": " superheroes",
  "6479": " scoop",
  "6480": " salty",
  "6481": " ruining",
  "6482": " rescued",
  "6483": " pans",
  "6484": " pins",
  "6485": " needles",
  "6486": " neither",
  "6487": " lighter",
  "6488": " lettuce",
  "6489": " introduced",
  "6490": " guys",
  "6491": " firefighters",
  "6492": " everyday",
  "6493": " decision",
  "6494": " burst",
  "6495": " bank",
  "6496": " Twinkle",
  "6497": " Pam",
  "6498": " Our",
  "6499": " Moo",
  "6500": " icing",
  "6501": "though",
  "6502": "rious",
  "6503": "ords",
  "6504": "etsy",
  "6505": "blings",
  "6506": "Roar",
  "6507": "Pipp",
  "6508": "Grandpa",
  "6509": "Days",
  "6510": "Dave",
  "6511": "?'",
  "6512": " wandering",
  "6513": " unf",
  "6514": " stern",
  "6515": " solution",
  "6516": " siblings",
  "6517": " relief",
  "6518": " growling",
  "6519": " forgets",
  "6520": " entrance",
  "6521": " desert",
  "6522": " darling",
  "6523": " crowd",
  "6524": " conflict",
  "6525": " cautious",
  "6526": " balanced",
  "6527": " Tara",
  "6528": " Larry",
  "6529": " Kids",
  "6530": " June",
  "6531": " Fish",
  "6532": "yr",
  "6533": "onny",
  "6534": "coat",
  "6535": "acob",
  "6536": "Doggy",
  "6537": "Beep",
  "6538": "An",
  "6539": " wraps",
  "6540": " wrist",
  "6541": " wires",
  "6542": " twisting",
  "6543": " twice",
  "6544": " toaster",
  "6545": " symbols",
  "6546": " stool",
  "6547": " sniffs",
  "6548": " seagull",
  "6549": " parked",
  "6550": " lifting",
  "6551": " hitting",
  "6552": " filling",
  "6553": " da",
  "6554": " creating",
  "6555": " chuck",
  "6556": " alien",
  "6557": " Lion",
  "6558": " Jones",
  "6559": " Jamie",
  "6560": " Get",
  "6561": " Queen",
  "6562": "uzzy",
  "6563": "eese",
  "6564": "ads",
  "6565": "adly",
  "6566": "Run",
  "6567": "Pe",
  "6568": "Lilly",
  "6569": "Annie",
  "6570": " wishing",
  "6571": " uns",
  "6572": " tune",
  "6573": " tangled",
  "6574": " surface",
  "6575": " shoulders",
  "6576": " robber",
  "6577": " restored",
  "6578": " raincoat",
  "6579": " quacked",
  "6580": " paddle",
  "6581": " noses",
  "6582": " however",
  "6583": " geese",
  "6584": " dod",
  "6585": " cheering",
  "6586": " celebrating",
  "6587": " baths",
  "6588": " basement",
  "6589": " badge",
  "6590": " backward",
  "6591": " Unfortunately",
  "6592": " Try",
  "6593": " Rolly",
  "6594": "uing",
  "6595": "tle",
  "6596": "ody",
  "6597": "ky",
  "6598": "itely",
  "6599": "ha",
  "6600": "essica",
  "6601": "cher",
  "6602": "Yeah",
  "6603": " workers",
  "6604": " unp",
  "6605": " travell",
  "6606": " swans",
  "6607": " stumble",
  "6608": " stomped",
  "6609": " slowed",
  "6610": " seeker",
  "6611": " rotting",
  "6612": " rockets",
  "6613": " reason",
  "6614": " rainy",
  "6615": " provided",
  "6616": " losing",
  "6617": " leaning",
  "6618": " least",
  "6619": " joking",
  "6620": " instrum",
  "6621": " fuzzy",
  "6622": " darkness",
  "6623": " cubes",
  "6624": " control",
  "6625": " click",
  "6626": " crew",
  "6627": " bak",
  "6628": " Snap",
  "6629": " Shadow",
  "6630": " Princess",
  "6631": " Man",
  "6632": "ledge",
  "6633": "jamas",
  "6634": "elia",
  "6635": "die",
  "6636": "bu",
  "6637": "atur",
  "6638": "aren",
  "6639": "Oops",
  "6640": "Joey",
  "6641": "Danny",
  "6642": "Big",
  "6643": " twinkle",
  "6644": " thud",
  "6645": " sponge",
  "6646": " snowmen",
  "6647": " sewed",
  "6648": " scra",
  "6649": " reads",
  "6650": " pumpkins",
  "6651": " players",
  "6652": " peeking",
  "6653": " paths",
  "6654": " pajamas",
  "6655": " mission",
  "6656": " knowledge",
  "6657": " interested",
  "6658": " improved",
  "6659": " honked",
  "6660": " healed",
  "6661": " guessing",
  "6662": " forehead",
  "6663": " flames",
  "6664": " dances",
  "6665": " covers",
  "6666": " accomplish",
  "6667": " Missy",
  "6668": " Duck",
  "6669": "fit",
  "6670": "ctions",
  "6671": "aura",
  "6672": "Sunny",
  "6673": "Ruby",
  "6674": "Milly",
  "6675": "May",
  "6676": "Follow",
  "6677": "Co",
  "6678": "Bear",
  "6679": " ventured",
  "6680": " scarves",
  "6681": " refreshed",
  "6682": " outfit",
  "6683": " objects",
  "6684": " kings",
  "6685": " itchy",
  "6686": " dollhouse",
  "6687": " det",
  "6688": " cushions",
  "6689": " comm",
  "6690": " bravery",
  "6691": " age",
  "6692": " Toot",
  "6693": " Snowman",
  "6694": " Blinky",
  "6695": " Betsy",
  "6696": " \n ",
  "6697": "vin",
  "6698": "stick",
  "6699": "ecked",
  "6700": "eed",
  "6701": "cuse",
  "6702": "ades",
  "6703": "Tweet",
  "6704": "Lulu",
  "6705": "Jerry",
  "6706": "Get",
  "6707": " ‘",
  "6708": " wow",
  "6709": " vowed",
  "6710": " usually",
  "6711": " untie",
  "6712": " twinkling",
  "6713": " tickled",
  "6714": " talks",
  "6715": " seven",
  "6716": " scales",
  "6717": " sense",
  "6718": " rusty",
  "6719": " rotten",
  "6720": " preparing",
  "6721": " planning",
  "6722": " month",
  "6723": " gears",
  "6724": " gri",
  "6725": " crumbs",
  "6726": " cheeks",
  "6727": " chips",
  "6728": " buying",
  "6729": " blooming",
  "6730": " blown",
  "6731": " behavi",
  "6732": " bakery",
  "6733": " airplane",
  "6734": " ast",
  "6735": " Jump",
  "6736": " Izzy",
  "6737": "pite",
  "6738": "ibbit",
  "6739": "ctar",
  "6740": "ampoline",
  "6741": "Those",
  "6742": "Sn",
  "6743": "Sandy",
  "6744": "Rose",
  "6745": "Kiki",
  "6746": "Great",
  "6747": "Excuse",
  "6748": " unpacked",
  "6749": " tunnels",
  "6750": " trampoline",
  "6751": " thorn",
  "6752": " slower",
  "6753": " scored",
  "6754": " roses",
  "6755": " raindrops",
  "6756": " risk",
  "6757": " pecked",
  "6758": " nectar",
  "6759": " leading",
  "6760": " including",
  "6761": " hesitated",
  "6762": " grows",
  "6763": " gle",
  "6764": " freed",
  "6765": " dots",
  "6766": " creativity",
  "6767": " confident",
  "6768": " competition",
  "6769": " colored",
  "6770": " chefs",
  "6771": " choo",
  "6772": " beads",
  "6773": " bumpy",
  "6774": " afterwards",
  "6775": " Whistle",
  "6776": " Tweety",
  "6777": " Rain",
  "6778": " Nut",
  "6779": " Bloom",
  "6780": "umbled",
  "6781": "rrr",
  "6782": "itched",
  "6783": "ilo",
  "6784": "ept",
  "6785": "cl",
  "6786": "Whee",
  "6787": "Quack",
  "6788": " tying",
  "6789": " stung",
  "6790": " somebody",
  "6791": " sway",
  "6792": " rewarded",
  "6793": " remembering",
  "6794": " princesses",
  "6795": " notes",
  "6796": " nine",
  "6797": " marked",
  "6798": " lifts",
  "6799": " fins",
  "6800": " directions",
  "6801": " direction",
  "6802": " decorating",
  "6803": " behaving",
  "6804": " beginning",
  "6805": " activ",
  "6806": " Yesterday",
  "6807": " Sun",
  "6808": " Rudy",
  "6809": " Other",
  "6810": " Luke",
  "6811": " Kay",
  "6812": " Chewy",
  "6813": " Cow",
  "6814": " Adam",
  "6815": "ushing",
  "6816": "iti",
  "6817": "ean",
  "6818": "cused",
  "6819": "arth",
  "6820": "Listen",
  "6821": "Am",
  "6822": " twenty",
  "6823": " swept",
  "6824": " squealed",
  "6825": " shrinking",
  "6826": " screws",
  "6827": " satisfied",
  "6828": " recommended",
  "6829": " recipe",
  "6830": " praying",
  "6831": " performed",
  "6832": " lessons",
  "6833": " grocer",
  "6834": " greet",
  "6835": " focused",
  "6836": " fact",
  "6837": " chuckled",
  "6838": " center",
  "6839": " celebration",
  "6840": " cous",
  "6841": " blinking",
  "6842": " avo",
  "6843": " achieved",
  "6844": " Zero",
  "6845": " Trust",
  "6846": " Those",
  "6847": " Rufus",
  "6848": " Nutty",
  "6849": " Nina",
  "6850": " Katie",
  "6851": " Holly",
  "6852": " Dodo",
  "6853": " Cara",
  "6854": " Barky",
  "6855": " Bones",
  "6856": " Birthday",
  "6857": "zie",
  "6858": "ives",
  "6859": "isies",
  "6860": "ingo",
  "6861": "inch",
  "6862": "immer",
  "6863": "bric",
  "6864": "aterial",
  "6865": "atty",
  "6866": "Sophie",
  "6867": "Bill",
  "6868": " wobble",
  "6869": " shovels",
  "6870": " shown",
  "6871": " sailors",
  "6872": " races",
  "6873": " rust",
  "6874": " muscle",
  "6875": " material",
  "6876": " leap",
  "6877": " glued",
  "6878": " flavor",
  "6879": " faced",
  "6880": " fabric",
  "6881": " doctors",
  "6882": " dived",
  "6883": " dancers",
  "6884": " damage",
  "6885": " dent",
  "6886": " customer",
  "6887": " clues",
  "6888": " activities",
  "6889": " Wooly",
  "6890": " Wise",
  "6891": " Sof",
  "6892": " Sc",
  "6893": " Rich",
  "6894": " Mouse",
  "6895": " Mon",
  "6896": " Lizzie",
  "6897": " Enjoy",
  "6898": " Yes",
  "6899": "ults",
  "6900": "ulp",
  "6901": "uzz",
  "6902": "ophia",
  "6903": "ossible",
  "6904": "jo",
  "6905": "fall",
  "6906": "ces",
  "6907": "cited",
  "6908": "bird",
  "6909": "armer",
  "6910": "Penny",
  "6911": "Moo",
  "6912": "Luckily",
  "6913": "Like",
  "6914": " wobbly",
  "6915": " wipes",
  "6916": " wiggly",
  "6917": " warnings",
  "6918": " untied",
  "6919": " ties",
  "6920": " swords",
  "6921": " spins",
  "6922": " sobbed",
  "6923": " snowflakes",
  "6924": " shaped",
  "6925": " seconds",
  "6926": " scur",
  "6927": " recording",
  "6928": " queens",
  "6929": " pupils",
  "6930": " printing",
  "6931": " presses",
  "6932": " passen",
  "6933": " partic",
  "6934": " pancakes",
  "6935": " nightmares",
  "6936": " necklaces",
  "6937": " labels",
  "6938": " insects",
  "6939": " impossible",
  "6940": " hider",
  "6941": " firefly",
  "6942": " daisies",
  "6943": " den",
  "6944": " curiously",
  "6945": " bodies",
  "6946": " blocking",
  "6947": " annoy",
  "6948": " Stay",
  "6949": " Julia",
  "6950": " Goodbye",
  "6951": " Gina",
  "6952": "step",
  "6953": "river",
  "6954": "rain",
  "6955": "ouch",
  "6956": "itcase",
  "6957": "ering",
  "6958": "but",
  "6959": "airy",
  "6960": "Maggie",
  "6961": "Betty",
  "6962": " wiping",
  "6963": " watering",
  "6964": " unsure",
  "6965": " swirl",
  "6966": " suitcase",
  "6967": " stro",
  "6968": " spreading",
  "6969": " shops",
  "6970": " particular",
  "6971": " heav",
  "6972": " forgetting",
  "6973": " feast",
  "6974": " calmed",
  "6975": " cott",
  "6976": " burrow",
  "6977": " backwards",
  "6978": " adult",
  "6979": " Nothing",
  "6980": " Mira",
  "6981": " Julie",
  "6982": " Jessie",
  "6983": " Earth",
  "6984": "wk",
  "6985": "vroom",
  "6986": "usted",
  "6987": "sie",
  "6988": "reg",
  "6989": "omb",
  "6990": "oey",
  "6991": "iles",
  "6992": "ido",
  "6993": "iar",
  "6994": "hopper",
  "6995": "brush",
  "6996": "aron",
  "6997": "agic",
  "6998": "Under",
  "6999": "Clara",
  "7000": "Baby",
  "7001": " yum",
  "7002": " wrapping",
  "7003": " windy",
  "7004": " tipto",
  "7005": " tapped",
  "7006": " sprang",
  "7007": " snat",
  "7008": " scurried",
  "7009": " reversed",
  "7010": " rushing",
  "7011": " quarreled",
  "7012": " properly",
  "7013": " pedaled",
  "7014": " paddled",
  "7015": " opp",
  "7016": " increased",
  "7017": " genie",
  "7018": " fires",
  "7019": " fever",
  "7020": " explo",
  "7021": " drivers",
  "7022": " cubs",
  "7023": " choices",
  "7024": " bumps",
  "7025": " beaver",
  "7026": " arrows",
  "7027": " ache",
  "7028": " aff",
  "7029": " Zee",
  "7030": " Rollie",
  "7031": " Play",
  "7032": " Laura",
  "7033": " Kit",
  "7034": " Joy",
  "7035": " Hold",
  "7036": " Fuzzy",
  "7037": " Andrew",
  "7038": "yrup",
  "7039": "ps",
  "7040": "orman",
  "7041": "omp",
  "7042": "no",
  "7043": "lets",
  "7044": "iversity",
  "7045": "ently",
  "7046": "ences",
  "7047": "driver",
  "7048": "aturday",
  "7049": "athan",
  "7050": "ans",
  "7051": "Ribbit",
  "7052": "Jazz",
  "7053": "Ab",
  "7054": " unw",
  "7055": " tighter",
  "7056": " suffered",
  "7057": " shoo",
  "7058": " syrup",
  "7059": " ranger",
  "7060": " rising",
  "7061": " pleasure",
  "7062": " plans",
  "7063": " performan",
  "7064": " paying",
  "7065": " pancake",
  "7066": " nests",
  "7067": " meals",
  "7068": " matters",
  "7069": " mailed",
  "7070": " instruments",
  "7071": " indeed",
  "7072": " haircuts",
  "7073": " glee",
  "7074": " flipped",
  "7075": " ends",
  "7076": " completely",
  "7077": " clowns",
  "7078": " coop",
  "7079": " Sleep",
  "7080": " Jessica",
  "7081": " Farmer",
  "7082": "—",
  "7083": "vy",
  "7084": "ronaut",
  "7085": "roat",
  "7086": "ptop",
  "7087": "obody",
  "7088": "len",
  "7089": "ition",
  "7090": "igers",
  "7091": "iding",
  "7092": "ibi",
  "7093": "hi",
  "7094": "eds",
  "7095": "cho",
  "7096": "coon",
  "7097": "Vroom",
  "7098": "Teddy",
  "7099": " zipping",
  "7100": " worries",
  "7101": " waterfall",
  "7102": " tricky",
  "7103": " tricycle",
  "7104": " touches",
  "7105": " todd",
  "7106": " throat",
  "7107": " ty",
  "7108": " swimmer",
  "7109": " supported",
  "7110": " students",
  "7111": " starfish",
  "7112": " stands",
  "7113": " screwdriver",
  "7114": " ropes",
  "7115": " relaxing",
  "7116": " pose",
  "7117": " piggy",
  "7118": " laptop",
  "7119": " hearing",
  "7120": " guide",
  "7121": " groceries",
  "7122": " grabbing",
  "7123": " forgiven",
  "7124": " flas",
  "7125": " exha",
  "7126": " encourag",
  "7127": " echo",
  "7128": " determination",
  "7129": " designed",
  "7130": " cuddly",
  "7131": " cautiously",
  "7132": " bomb",
  "7133": " astronaut",
  "7134": " Wo",
  "7135": " Up",
  "7136": " Titi",
  "7137": " Sl",
  "7138": " Saturday",
  "7139": " Re",
  "7140": " Peanut",
  "7141": " Patty",
  "7142": " Patch",
  "7143": " Ex",
  "7144": " Cudd",
  "7145": " Anne",
  "7146": "sequ",
  "7147": "prin",
  "7148": "onnie",
  "7149": "endy",
  "7150": "Millie",
  "7151": "Henry",
  "7152": " zebras",
  "7153": " yelp",
  "7154": " worrying",
  "7155": " tractor",
  "7156": " sweets",
  "7157": " stroked",
  "7158": " spikes",
  "7159": " sewing",
  "7160": " sending",
  "7161": " rods",
  "7162": " puzzled",
  "7163": " loops",
  "7164": " jobs",
  "7165": " intr",
  "7166": " hiss",
  "7167": " hawk",
  "7168": " gardener",
  "7169": " flapping",
  "7170": " deal",
  "7171": " corners",
  "7172": " consequ",
  "7173": " char",
  "7174": " borrowed",
  "7175": " accomplishment",
  "7176": " Only",
  "7177": " Jilly",
  "7178": " Jay",
  "7179": " Car",
  "7180": "yond",
  "7181": "urtles",
  "7182": "ude",
  "7183": "stalk",
  "7184": "ssy",
  "7185": "rat",
  "7186": "innie",
  "7187": "illed",
  "7188": "iece",
  "7189": "hive",
  "7190": "fire",
  "7191": "ellow",
  "7192": "da",
  "7193": "bbled",
  "7194": "awn",
  "7195": "andas",
  "7196": "anes",
  "7197": "ading",
  "7198": "Quick",
  "7199": "Josh",
  "7200": "Bow",
  "7201": "Always",
  "7202": "',",
  "7203": " weapons",
  "7204": " thoughts",
  "7205": " turtles",
  "7206": " surprising",
  "7207": " surfboard",
  "7208": " suffering",
  "7209": " squaw",
  "7210": " sparks",
  "7211": " snatched",
  "7212": " signed",
  "7213": " respond",
  "7214": " passengers",
  "7215": " minded",
  "7216": " kites",
  "7217": " imagining",
  "7218": " guests",
  "7219": " groups",
  "7220": " grasshopper",
  "7221": " frowning",
  "7222": " exhausted",
  "7223": " discovering",
  "7224": " daring",
  "7225": " cousin",
  "7226": " counts",
  "7227": " consequences",
  "7228": " colder",
  "7229": " chop",
  "7230": " bits",
  "7231": " beehive",
  "7232": " beanstalk",
  "7233": " beyond",
  "7234": " beam",
  "7235": " Take",
  "7236": " Nick",
  "7237": " Mad",
  "7238": " Fido",
  "7239": " Elle",
  "7240": " Dina",
  "7241": " Claire",
  "7242": " Amber",
  "7243": "using",
  "7244": "paired",
  "7245": "ongrat",
  "7246": "ments",
  "7247": "itted",
  "7248": "itches",
  "7249": "issue",
  "7250": "iona",
  "7251": "five",
  "7252": "affle",
  "7253": "ae",
  "7254": "Wake",
  "7255": "Mrs",
  "7256": "However",
  "7257": "Dear",
  "7258": "'.\"",
  "7259": " vanilla",
  "7260": " trembled",
  "7261": " tossed",
  "7262": " toddler",
  "7263": " thrown",
  "7264": " tissue",
  "7265": " tipped",
  "7266": " tigers",
  "7267": " stopping",
  "7268": " stem",
  "7269": " sprinkled",
  "7270": " softer",
  "7271": " singer",
  "7272": " sharks",
  "7273": " rivers",
  "7274": " repaired",
  "7275": " rains",
  "7276": " rumble",
  "7277": " puppies",
  "7278": " pouted",
  "7279": " plain",
  "7280": " performance",
  "7281": " pandas",
  "7282": " markers",
  "7283": " magnif",
  "7284": " mer",
  "7285": " laying",
  "7286": " hotter",
  "7287": " forgiving",
  "7288": " fif",
  "7289": " duckling",
  "7290": " conn",
  "7291": " budge",
  "7292": " Stella",
  "7293": " Robert",
  "7294": " Robbie",
  "7295": " Nice",
  "7296": " Jacob",
  "7297": " Fairy",
  "7298": " Crab",
  "7299": " Cut",
  "7300": " Bop",
  "7301": " Ang",
  "7302": "yes",
  "7303": "yd",
  "7304": "vers",
  "7305": "uggles",
  "7306": "uppy",
  "7307": "ters",
  "7308": "sa",
  "7309": "romise",
  "7310": "pen",
  "7311": "osen",
  "7312": "ongratul",
  "7313": "oga",
  "7314": "itude",
  "7315": "ilda",
  "7316": "ilver",
  "7317": "ellie",
  "7318": "cover",
  "7319": "child",
  "7320": "Take",
  "7321": "Spike",
  "7322": "Jump",
  "7323": "Ellie",
  "7324": " wisely",
  "7325": " wider",
  "7326": " widened",
  "7327": " warmer",
  "7328": " tiptoed",
  "7329": " terrified",
  "7330": " stolen",
  "7331": " sports",
  "7332": " spits",
  "7333": " slips",
  "7334": " single",
  "7335": " shady",
  "7336": " robots",
  "7337": " respected",
  "7338": " purr",
  "7339": " messes",
  "7340": " magician",
  "7341": " lending",
  "7342": " hopeful",
  "7343": " grandchild",
  "7344": " gracefully",
  "7345": " freedom",
  "7346": " fluttered",
  "7347": " figures",
  "7348": " enthusiasm",
  "7349": " drawers",
  "7350": " conc",
  "7351": " checks",
  "7352": " chosen",
  "7353": " campfire",
  "7354": " bracelets",
  "7355": " Without",
  "7356": " Tweetie",
  "7357": " Sadly",
  "7358": " Pine",
  "7359": " Pinch",
  "7360": " Copper",
  "7361": " Chip",
  "7362": " Bibi",
  "7363": " Abi",
  "7364": "zoom",
  "7365": "yler",
  "7366": "udience",
  "7367": "the",
  "7368": "rink",
  "7369": "prints",
  "7370": "parent",
  "7371": "inger",
  "7372": "immering",
  "7373": "father",
  "7374": "ertie",
  "7375": "attered",
  "7376": "arac",
  "7377": "abel",
  "7378": "Zoomy",
  "7379": "Slow",
  "7380": "Olive",
  "7381": "Jan",
  "7382": "Frank",
  "7383": "Boys",
  "7384": " wept",
  "7385": " unwra",
  "7386": " twists",
  "7387": " twinkled",
  "7388": " treehouse",
  "7389": " throughout",
  "7390": " talented",
  "7391": " strongest",
  "7392": " stored",
  "7393": " stain",
  "7394": " squish",
  "7395": " spills",
  "7396": " spies",
  "7397": " scooters",
  "7398": " scolds",
  "7399": " roars",
  "7400": " regretted",
  "7401": " reapp",
  "7402": " rowed",
  "7403": " rather",
  "7404": " pops",
  "7405": " pills",
  "7406": " peck",
  "7407": " nood",
  "7408": " mints",
  "7409": " lower",
  "7410": " jackets",
  "7411": " humans",
  "7412": " gross",
  "7413": " firmly",
  "7414": " firefighter",
  "7415": " encouraging",
  "7416": " dripping",
  "7417": " drawn",
  "7418": " deserve",
  "7419": " creations",
  "7420": " countryside",
  "7421": " coloured",
  "7422": " cheers",
  "7423": " charac",
  "7424": " coup",
  "7425": " cor",
  "7426": " burnt",
  "7427": " amount",
  "7428": " audience",
  "7429": " Terry",
  "7430": " Snuggles",
  "7431": " Nobody",
  "7432": " Nathan",
  "7433": " Match",
  "7434": " Judy",
  "7435": " Henny",
  "7436": " Hannah",
  "7437": " Gray",
  "7438": " Fire",
  "7439": " Cuddles",
  "7440": "ya",
  "7441": "vant",
  "7442": "urious",
  "7443": "tha",
  "7444": "retty",
  "7445": "mine",
  "7446": "igued",
  "7447": "igning",
  "7448": "hog",
  "7449": "erg",
  "7450": "eal",
  "7451": "band",
  "7452": "aint",
  "7453": "Tony",
  "7454": "Lola",
  "7455": "Hurry",
  "7456": "David",
  "7457": "Buzzy",
  "7458": " wrink",
  "7459": " strips",
  "7460": " squishy",
  "7461": " squeak",
  "7462": " source",
  "7463": " separated",
  "7464": " secure",
  "7465": " san",
  "7466": " sou",
  "7467": " rescuing",
  "7468": " raising",
  "7469": " playhouse",
  "7470": " neare",
  "7471": " lipstick",
  "7472": " kittens",
  "7473": " hedgehog",
  "7474": " hates",
  "7475": " hallway",
  "7476": " grandparent",
  "7477": " ev",
  "7478": " drifted",
  "7479": " def",
  "7480": " couple",
  "7481": " antic",
  "7482": " aimed",
  "7483": " University",
  "7484": " Silver",
  "7485": " Pr",
  "7486": " Milo",
  "7487": " Linda",
  "7488": " Isn",
  "7489": " Doctor",
  "7490": " Ash",
  "7491": "worm",
  "7492": "verse",
  "7493": "tw",
  "7494": "reverse",
  "7495": "opes",
  "7496": "liver",
  "7497": "iel",
  "7498": "ails",
  "7499": "Thomas",
  "7500": "Red",
  "7501": "Pat",
  "7502": "Mat",
  "7503": "Dolly",
  "7504": "Coco",
  "7505": "Back",
  "7506": "Alex",
  "7507": " zooms",
  "7508": " worn",
  "7509": " within",
  "7510": " whispers",
  "7511": " wee",
  "7512": " und",
  "7513": " tearing",
  "7514": " stroke",
  "7515": " storekeeper",
  "7516": " smelling",
  "7517": " slices",
  "7518": " scraped",
  "7519": " scri",
  "7520": " sank",
  "7521": " reass",
  "7522": " purrs",
  "7523": " poster",
  "7524": " pinching",
  "7525": " puff",
  "7526": " nervously",
  "7527": " nur",
  "7528": " napped",
  "7529": " materials",
  "7530": " magnets",
  "7531": " moo",
  "7532": " lies",
  "7533": " leads",
  "7534": " knives",
  "7535": " joining",
  "7536": " heavier",
  "7537": " health",
  "7538": " greeted",
  "7539": " films",
  "7540": " faded",
  "7541": " dip",
  "7542": " crashing",
  "7543": " cleaner",
  "7544": " breathed",
  "7545": " bride",
  "7546": " blocked",
  "7547": " believing",
  "7548": " avoid",
  "7549": " among",
  "7550": " Zoey",
  "7551": " Well",
  "7552": " Waffle",
  "7553": " Sparky",
  "7554": " Mic",
  "7555": " Kelly",
  "7556": " Karen",
  "7557": " Gertie",
  "7558": " Gerry",
  "7559": " Angel",
  "7560": " Amelia",
  "7561": " Along",
  "7562": "ppies",
  "7563": "pr",
  "7564": "oosh",
  "7565": "ollen",
  "7566": "mies",
  "7567": "izon",
  "7568": "isions",
  "7569": "ipes",
  "7570": "ipation",
  "7571": "ighting",
  "7572": "ientist",
  "7573": "ivery",
  "7574": "ening",
  "7575": "elie",
  "7576": "cept",
  "7577": "athy",
  "7578": "arget",
  "7579": "aven",
  "7580": "Pippin",
  "7581": "Outside",
  "7582": "Maria",
  "7583": "Kate",
  "7584": "Bee",
  "7585": "Bang",
  "7586": "Aunt",
  "7587": "?!\"",
  "7588": " wrigg",
  "7589": " willing",
  "7590": " wakes",
  "7591": " tweet",
  "7592": " tops",
  "7593": " target",
  "7594": " swollen",
  "7595": " swap",
  "7596": " swallow",
  "7597": " suits",
  "7598": " stitches",
  "7599": " speeding",
  "7600": " sneezes",
  "7601": " slither",
  "7602": " seasons",
  "7603": " scattering",
  "7604": " scientist",
  "7605": " repeating",
  "7606": " peep",
  "7607": " paintbrush",
  "7608": " otters",
  "7609": " languages",
  "7610": " humming",
  "7611": " horizon",
  "7612": " hoo",
  "7613": " grip",
  "7614": " grandfather",
  "7615": " flip",
  "7616": " fits",
  "7617": " fills",
  "7618": " dodged",
  "7619": " decisions",
  "7620": " crossing",
  "7621": " creams",
  "7622": " cracks",
  "7623": " corre",
  "7624": " cosy",
  "7625": " cloudy",
  "7626": " bravest",
  "7627": " awoke",
  "7628": " anticipation",
  "7629": " Wendy",
  "7630": " Suzie",
  "7631": " Robo",
  "7632": " Christ",
  "7633": " Chirp",
  "7634": " Beaky",
  "7635": " Bingo",
  "7636": "weed",
  "7637": "ummies",
  "7638": "ulpture",
  "7639": "rough",
  "7640": "ousy",
  "7641": "onna",
  "7642": "nor",
  "7643": "imon",
  "7644": "icha",
  "7645": "ichael",
  "7646": "erate",
  "7647": "artled",
  "7648": "acky",
  "7649": "Jul",
  "7650": "Instead",
  "7651": " wounds",
  "7652": " whimp",
  "7653": " trusting",
  "7654": " sweaty",
  "7655": " student",
  "7656": " stroll",
  "7657": " silent",
  "7658": " seaweed",
  "7659": " sculpture",
  "7660": " ripe",
  "7661": " rats",
  "7662": " questioned",
  "7663": " purpose",
  "7664": " punishment",
  "7665": " prove",
  "7666": " panicked",
  "7667": " noodles",
  "7668": " nuzz",
  "7669": " minding",
  "7670": " munch",
  "7671": " licking",
  "7672": " jets",
  "7673": " hunters",
  "7674": " hour",
  "7675": " grassy",
  "7676": " giggles",
  "7677": " gonna",
  "7678": " flavors",
  "7679": " flight",
  "7680": " final",
  "7681": " familiar",
  "7682": " experien",
  "7683": " evil",
  "7684": " envelopes",
  "7685": " encount",
  "7686": " dollars",
  "7687": " die",
  "7688": " cowb",
  "7689": " combed",
  "7690": " changes",
  "7691": " beloved",
  "7692": " bathing",
  "7693": " aside",
  "7694": " adds",
  "7695": " Sofia",
  "7696": " Ratty",
  "7697": " Maya",
  "7698": " Mousy",
  "7699": " Mel",
  "7700": " Listen",
  "7701": " Day",
  "7702": " Cloud",
  "7703": " Chomp",
  "7704": " Bubu",
  "7705": " Another",
  "7706": " Ana",
  "7707": " 2",
  "7708": "unched",
  "7709": "umbling",
  "7710": "steps",
  "7711": "pecting",
  "7712": "match",
  "7713": "lied",
  "7714": "emma",
  "7715": "cc",
  "7716": "beep",
  "7717": "bba",
  "7718": "bell",
  "7719": "arlings",
  "7720": "abby",
  "7721": "Snow",
  "7722": "Mad",
  "7723": "Hop",
  "7724": "Finn",
  "7725": "Friends",
  "7726": "Even",
  "7727": "Bessie",
  "7728": "Alright",
  "7729": " warri",
  "7730": " triangles",
  "7731": " temper",
  "7732": " teams",
  "7733": " taped",
  "7734": " tummies",
  "7735": " supplied",
  "7736": " streets",
  "7737": " squeezing",
  "7738": " squeezes",
  "7739": " slipping",
  "7740": " shorts",
  "7741": " shinier",
  "7742": " raccoon",
  "7743": " prayers",
  "7744": " politely",
  "7745": " poses",
  "7746": " plug",
  "7747": " occ",
  "7748": " neatly",
  "7749": " miller",
  "7750": " mate",
  "7751": " joins",
  "7752": " intrigued",
  "7753": " inches",
  "7754": " frowns",
  "7755": " footsteps",
  "7756": " focus",
  "7757": " flaps",
  "7758": " files",
  "7759": " explains",
  "7760": " experienced",
  "7761": " express",
  "7762": " everybody",
  "7763": " doorbell",
  "7764": " delivery",
  "7765": " darlings",
  "7766": " cond",
  "7767": " chip",
  "7768": " cert",
  "7769": " belts",
  "7770": " born",
  "7771": " backed",
  "7772": " ais",
  "7773": " Vroom",
  "7774": " Tre",
  "7775": " Say",
  "7776": " Pinchy",
  "7777": " Olly",
  "7778": " Near",
  "7779": " Judge",
  "7780": " Johnson",
  "7781": " Gary",
  "7782": " Brain",
  "7783": " 5",
  "7784": "yan",
  "7785": "udged",
  "7786": "uess",
  "7787": "thest",
  "7788": "rice",
  "7789": "rench",
  "7790": "pril",
  "7791": "ooky",
  "7792": "llas",
  "7793": "irty",
  "7794": "hel",
  "7795": "ected",
  "7796": "een",
  "7797": "dding",
  "7798": "crow",
  "7799": "boards",
  "7800": "angle",
  "7801": "Zip",
  "7802": "Two",
  "7803": "Put",
  "7804": "Nice",
  "7805": "Near",
  "7806": "Mo",
  "7807": "Leave",
  "7808": "Kim",
  "7809": "Joh",
  "7810": "Find",
  "7811": "Bo",
  "7812": "Binky",
  "7813": "Abigail",
  "7814": " zigzags",
  "7815": " yielded",
  "7816": " yelped",
  "7817": " whoever",
  "7818": " umbrellas",
  "7819": " sweetest",
  "7820": " storms",
  "7821": " spooky",
  "7822": " soda",
  "7823": " smashed",
  "7824": " simply",
  "7825": " shrunk",
  "7826": " ships",
  "7827": " sheets",
  "7828": " sets",
  "7829": " seals",
  "7830": " scarecrow",
  "7831": " sale",
  "7832": " rustling",
  "7833": " puck",
  "7834": " overcome",
  "7835": " obeyed",
  "7836": " mommies",
  "7837": " loudest",
  "7838": " lent",
  "7839": " ignoring",
  "7840": " handsome",
  "7841": " glitt",
  "7842": " footprints",
  "7843": " farthest",
  "7844": " elf",
  "7845": " crowns",
  "7846": " coloring",
  "7847": " chocolates",
  "7848": " congratul",
  "7849": " bandages",
  "7850": " Yellow",
  "7851": " Truck",
  "7852": " Share",
  "7853": " Sophia",
  "7854": " Puppy",
  "7855": " Ph",
  "7856": " Okay",
  "7857": " Louise",
  "7858": " Joanna",
  "7859": " Jonny",
  "7860": " Hops",
  "7861": " Fighting",
  "7862": " Fe",
  "7863": " Eva",
  "7864": " Dot",
  "7865": " Cord",
  "7866": " Cle",
  "7867": " Beef",
  "7868": "veral",
  "7869": "mas",
  "7870": "ilted",
  "7871": "ibil",
  "7872": "ears",
  "7873": "covered",
  "7874": "atitude",
  "7875": "asty",
  "7876": "Try",
  "7877": "Ted",
  "7878": "Sw",
  "7879": "Speedy",
  "7880": "Momma",
  "7881": "Mother",
  "7882": "Mine",
  "7883": "Guess",
  "7884": "Elly",
  "7885": "Chloe",
  "7886": " warmly",
  "7887": " waking",
  "7888": " wadd",
  "7889": " travelling",
  "7890": " thorns",
  "7891": " thirty",
  "7892": " tempt",
  "7893": " surroundings",
  "7894": " stomp",
  "7895": " stepping",
  "7896": " squeaky",
  "7897": " sped",
  "7898": " shh",
  "7899": " shall",
  "7900": " seller",
  "7901": " several",
  "7902": " sevent",
  "7903": " sadder",
  "7904": " rows",
  "7905": " quieter",
  "7906": " poppies",
  "7907": " plucked",
  "7908": " picnics",
  "7909": " poop",
  "7910": " onward",
  "7911": " nearly",
  "7912": " merma",
  "7913": " master",
  "7914": " marker",
  "7915": " height",
  "7916": " handful",
  "7917": " hus",
  "7918": " groan",
  "7919": " gratitude",
  "7920": " flashed",
  "7921": " enjoyable",
  "7922": " encountered",
  "7923": " drown",
  "7924": " donkey",
  "7925": " disob",
  "7926": " delivering",
  "7927": " delayed",
  "7928": " dears",
  "7929": " covering",
  "7930": " congratulated",
  "7931": " cons",
  "7932": " charge",
  "7933": " behavior",
  "7934": " beetles",
  "7935": " beeped",
  "7936": " banged",
  "7937": " backs",
  "7938": " astronauts",
  "7939": " aren",
  "7940": " appreciation",
  "7941": " aim",
  "7942": " Zeb",
  "7943": " Puffy",
  "7944": " Oxy",
  "7945": " Martha",
  "7946": " Janet",
  "7947": " Grumpy",
  "7948": " Glow",
  "7949": " Excited",
  "7950": " Elsa",
  "7951": " Bumpy",
  "7952": " 10",
  "7953": "shm",
  "7954": "shmallow",
  "7955": "ortun",
  "7956": "ordinary",
  "7957": "inny",
  "7958": "iggles",
  "7959": "found",
  "7960": "elieve",
  "7961": "eliable",
  "7962": "cope",
  "7963": "bbly",
  "7964": "aye",
  "7965": "aster",
  "7966": "arrow",
  "7967": "anne",
  "7968": "allowed",
  "7969": "ably",
  "7970": "Uncle",
  "7971": "Trust",
  "7972": "Rock",
  "7973": "Lucky",
  "7974": "Cindy",
  "7975": "Carl",
  "7976": "By",
  "7977": "Bug",
  "7978": "Boun",
  "7979": "Abby",
  "7980": "--",
  "7981": " travelled",
  "7982": " tidied",
  "7983": " tuck",
  "7984": " sweep",
  "7985": " swallowed",
  "7986": " stew",
  "7987": " stacked",
  "7988": " squir",
  "7989": " soapy",
  "7990": " skunk",
  "7991": " sirens",
  "7992": " serving",
  "7993": " scamp",
  "7994": " sill",
  "7995": " pours",
  "7996": " oysters",
  "7997": " opportun",
  "7998": " occas",
  "7999": " nin",
  "8000": " moons",
  "8001": " luckily",
  "8002": " loses",
  "8003": " laces",
  "8004": " husband",
  "8005": " heels",
  "8006": " healing",
  "8007": " heading",
  "8008": " friendships",
  "8009": " floats",
  "8010": " extraordinary",
  "8011": " erase",
  "8012": " encouragement",
  "8013": " driveway",
  "8014": " doves",
  "8015": " disturbing",
  "8016": " disc",
  "8017": " cuddles",
  "8018": " crystals",
  "8019": " crowded",
  "8020": " creamy",
  "8021": " cleared",
  "8022": " brushing",
  "8023": " bru",
  "8024": " bothered",
  "8025": " bicycles",
  "8026": " benches",
  "8027": " bless",
  "8028": " attack",
  "8029": " angels",
  "8030": " Zippy",
  "8031": " Ugly",
  "8032": " Tippy",
  "8033": " Sean",
  "8034": " Puff",
  "8035": " Mikey",
  "8036": " More",
  "8037": " Minnie",
  "8038": " Make",
  "8039": " Ma",
  "8040": " Luc",
  "8041": " Lenny",
  "8042": " Jean",
  "8043": " Jackie",
  "8044": " Greeny",
  "8045": " Greg",
  "8046": " Eat",
  "8047": " Cozy",
  "8048": " Christmas",
  "8049": " Boom",
  "8050": " Allie",
  "8051": " ill",
  "8052": "venir",
  "8053": "urricane",
  "8054": "rier",
  "8055": "pples",
  "8056": "ounced",
  "8057": "oring",
  "8058": "order",
  "8059": "lls",
  "8060": "kend",
  "8061": "ita",
  "8062": "icate",
  "8063": "fly",
  "8064": "ecc",
  "8065": "ecca",
  "8066": "evin",
  "8067": "daughter",
  "8068": "ancy",
  "8069": "alth",
  "8070": "aa",
  "8071": "Splash",
  "8072": "Rosie",
  "8073": "Ray",
  "8074": "Pippa",
  "8075": "Mira",
  "8076": "Lizzie",
  "8077": "Keep",
  "8078": "Goodnight",
  "8079": "Freddy",
  "8080": "Finny",
  "8081": "Car",
  "8082": "Brrr",
  "8083": " wrinkled",
  "8084": " winners",
  "8085": " whistles",
  "8086": " weekend",
  "8087": " weeds",
  "8088": " wealth",
  "8089": " visits",
  "8090": " unlo",
  "8091": " understands",
  "8092": " tested",
  "8093": " suns",
  "8094": " souvenir",
  "8095": " snowy",
  "8096": " servant",
  "8097": " scampered",
  "8098": " robbers",
  "8099": " responded",
  "8100": " refreshing",
  "8101": " pleaded",
  "8102": " permitted",
  "8103": " nodding",
  "8104": " months",
  "8105": " mixture",
  "8106": " mesmer",
  "8107": " meows",
  "8108": " melons",
  "8109": " marshmallow",
  "8110": " kneeling",
  "8111": " invites",
  "8112": " insisting",
  "8113": " guarding",
  "8114": " grandparents",
  "8115": " gazing",
  "8116": " flown",
  "8117": " fifty",
  "8118": " explorer",
  "8119": " efforts",
  "8120": " echoed",
  "8121": " drying",
  "8122": " discussed",
  "8123": " digs",
  "8124": " despite",
  "8125": " dentist",
  "8126": " decl",
  "8127": " craft",
  "8128": " carries",
  "8129": " bothering",
  "8130": " becomes",
  "8131": " baskets",
  "8132": " arr",
  "8133": " Yoga",
  "8134": " Whoever",
  "8135": " Whee",
  "8136": " Time",
  "8137": " Thanks",
  "8138": " Tyler",
  "8139": " Taking",
  "8140": " Rainbow",
  "8141": " Poor",
  "8142": " Oliver",
  "8143": " Marie",
  "8144": " Jacky",
  "8145": " Floppy",
  "8146": " Eliz",
  "8147": " Cr",
  "8148": " Candy",
  "8149": " CD",
  "8150": " Bonnie",
  "8151": "ydia",
  "8152": "wise",
  "8153": "uster",
  "8154": "quid",
  "8155": "orking",
  "8156": "onnor",
  "8157": "onies",
  "8158": "over",
  "8159": "kids",
  "8160": "irac",
  "8161": "iley",
  "8162": "igger",
  "8163": "icorn",
  "8164": "iving",
  "8165": "ggy",
  "8166": "freeze",
  "8167": "ettle",
  "8168": "espite",
  "8169": "eat",
  "8170": "chievous",
  "8171": "anta",
  "8172": "amboo",
  "8173": "abella",
  "8174": "Which",
  "8175": "Very",
  "8176": "Play",
  "8177": "Nina",
  "8178": "Maya",
  "8179": "Ju",
  "8180": "Fl",
  "8181": "Birdy",
  "8182": "!”.",
  "8183": " wriggled",
  "8184": " whispering",
  "8185": " wasting",
  "8186": " unicorn",
  "8187": " tubes",
  "8188": " trot",
  "8189": " trading",
  "8190": " tasting",
  "8191": " tilted",
  "8192": " swimsuit",
  "8193": " sweaters",
  "8194": " switched",
  "8195": " surrendered",
  "8196": " stuffing",
  "8197": " spells",
  "8198": " sniffing",
  "8199": " snaps",
  "8200": " shimmering",
  "8201": " sandy",
  "8202": " sax",
  "8203": " risks",
  "8204": " potion",
  "8205": " performing",
  "8206": " peeped",
  "8207": " pound",
  "8208": " overw",
  "8209": " offering",
  "8210": " nurses",
  "8211": " newfound",
  "8212": " mosquitoes",
  "8213": " moat",
  "8214": " mischievous",
  "8215": " mermaid",
  "8216": " magnifying",
  "8217": " lowered",
  "8218": " longest",
  "8219": " locks",
  "8220": " liquid",
  "8221": " kinder",
  "8222": " inchworm",
  "8223": " insp",
  "8224": " images",
  "8225": " hesitant",
  "8226": " grandkids",
  "8227": " granddaughter",
  "8228": " gobbled",
  "8229": " glittering",
  "8230": " fixer",
  "8231": " examining",
  "8232": " engines",
  "8233": " earned",
  "8234": " desper",
  "8235": " demanding",
  "8236": " dump",
  "8237": " customers",
  "8238": " correctly",
  "8239": " consid",
  "8240": " convin",
  "8241": " comforting",
  "8242": " cloths",
  "8243": " certain",
  "8244": " cares",
  "8245": " calmly",
  "8246": " breathing",
  "8247": " blushed",
  "8248": " belongings",
  "8249": " bells",
  "8250": " bamboo",
  "8251": " attem",
  "8252": " artist",
  "8253": " admiration",
  "8254": " activity",
  "8255": " action",
  "8256": " Yet",
  "8257": " Woolly",
  "8258": " Since",
  "8259": " Printy",
  "8260": " Orange",
  "8261": " Never",
  "8262": " Momma",
  "8263": " Meg",
  "8264": " Mother",
  "8265": " Luckily",
  "8266": " Kn",
  "8267": " Kip",
  "8268": " Hurricane",
  "8269": " Honey",
  "8270": " Friend",
  "8271": " Everybody",
  "8272": " Che",
  "8273": " Boat",
  "8274": " Buster",
  "8275": " Bri",
  "8276": " April",
  "8277": "…",
  "8278": "ugging",
  "8279": "under",
  "8280": "sol",
  "8281": "retch",
  "8282": "rac",
  "8283": "othy",
  "8284": "otch",
  "8285": "onse",
  "8286": "nnie",
  "8287": "mo",
  "8288": "helmed",
  "8289": "form",
  "8290": "elling",
  "8291": "eek",
  "8292": "eve",
  "8293": "ddie",
  "8294": "cat",
  "8295": "ayla",
  "8296": "Too",
  "8297": "Su",
  "8298": "People",
  "8299": "Pandy",
  "8300": "Liz",
  "8301": "Kids",
  "8302": "Jamie",
  "8303": "Honey",
  "8304": "Behind",
  "8305": "Both",
  "8306": "Beth",
  "8307": "Afterwards",
  "8308": " —",
  "8309": " yumm",
  "8310": " treated",
  "8311": " toward",
  "8312": " thanking",
  "8313": " tests",
  "8314": " tapping",
  "8315": " suggestion",
  "8316": " statues",
  "8317": " spears",
  "8318": " sooner",
  "8319": " smartest",
  "8320": " shortcut",
  "8321": " shooed",
  "8322": " scen",
  "8323": " response",
  "8324": " resisted",
  "8325": " reminding",
  "8326": " rewards",
  "8327": " proper",
  "8328": " pressing",
  "8329": " presented",
  "8330": " peacefully",
  "8331": " ponies",
  "8332": " overwhelmed",
  "8333": " odd",
  "8334": " numbered",
  "8335": " nibb",
  "8336": " movements",
  "8337": " minds",
  "8338": " matey",
  "8339": " marking",
  "8340": " manners",
  "8341": " manag",
  "8342": " mood",
  "8343": " haird",
  "8344": " grandson",
  "8345": " globe",
  "8346": " funn",
  "8347": " forgiveness",
  "8348": " forests",
  "8349": " force",
  "8350": " fleas",
  "8351": " flashing",
  "8352": " fireflies",
  "8353": " fant",
  "8354": " except",
  "8355": " ease",
  "8356": " dropping",
  "8357": " dollar",
  "8358": " dock",
  "8359": " designing",
  "8360": " declared",
  "8361": " defe",
  "8362": " dangers",
  "8363": " court",
  "8364": " cotton",
  "8365": " cops",
  "8366": " coach",
  "8367": " clicked",
  "8368": " cheat",
  "8369": " characters",
  "8370": " chilly",
  "8371": " coug",
  "8372": " brakes",
  "8373": " blast",
  "8374": " behaviour",
  "8375": " annoyed",
  "8376": " although",
  "8377": " adults",
  "8378": " active",
  "8379": " actor",
  "8380": " Wait",
  "8381": " Tomorrow",
  "8382": " Stan",
  "8383": " Sami",
  "8384": " Simon",
  "8385": " Reliable",
  "8386": " Pep",
  "8387": " Nana",
  "8388": " Maddie",
  "8389": " Lia",
  "8390": " Laser",
  "8391": " Jojo",
  "8392": " Jenn",
  "8393": " Ivy",
  "8394": " Goose",
  "8395": " Flutter",
  "8396": " Flora",
  "8397": " Flick",
  "8398": " Faye",
  "8399": " Does",
  "8400": " Davey",
  "8401": " Chris",
  "8402": " Coby",
  "8403": " Cathy",
  "8404": " Cally",
  "8405": "vor",
  "8406": "two",
  "8407": "shadow",
  "8408": "resser",
  "8409": "raw",
  "8410": "rons",
  "8411": "otte",
  "8412": "orter",
  "8413": "mates",
  "8414": "isible",
  "8415": "initely",
  "8416": "gain",
  "8417": "ets",
  "8418": "emo",
  "8419": "arlotte",
  "8420": "alph",
  "8421": "Tara",
  "8422": "Rachel",
  "8423": "Pinky",
  "8424": "Noah",
  "8425": "Nick",
  "8426": "Lena",
  "8427": "Katie",
  "8428": "Hmm",
  "8429": "Gogo",
  "8430": "Fifi",
  "8431": "Ball",
  "8432": "Abbie",
  "8433": "!’",
  "8434": " welcoming",
  "8435": " weighs",
  "8436": " waddled",
  "8437": " visitors",
  "8438": " vibr",
  "8439": " travels",
  "8440": " surfing",
  "8441": " streamers",
  "8442": " stamped",
  "8443": " squeaked",
  "8444": " squinted",
  "8445": " spoonful",
  "8446": " spilling",
  "8447": " spice",
  "8448": " sleeps",
  "8449": " sixty",
  "8450": " shrank",
  "8451": " shorter",
  "8452": " seventy",
  "8453": " self",
  "8454": " saxophone",
  "8455": " sails",
  "8456": " results",
  "8457": " rely",
  "8458": " rumbling",
  "8459": " peeled",
  "8460": " pays",
  "8461": " paddling",
  "8462": " orders",
  "8463": " nuzzled",
  "8464": " ninety",
  "8465": " nearest",
  "8466": " mustn",
  "8467": " invisible",
  "8468": " hairdresser",
  "8469": " forty",
  "8470": " foam",
  "8471": " flips",
  "8472": " fantastic",
  "8473": " faith",
  "8474": " exploded",
  "8475": " experiences",
  "8476": " elbow",
  "8477": " eighty",
  "8478": " edges",
  "8479": " dreamt",
  "8480": " displayed",
  "8481": " detect",
  "8482": " destroying",
  "8483": " date",
  "8484": " cowboy",
  "8485": " countries",
  "8486": " convinced",
  "8487": " common",
  "8488": " comets",
  "8489": " choosing",
  "8490": " cheated",
  "8491": " chatting",
  "8492": " charity",
  "8493": " business",
  "8494": " brains",
  "8495": " blamed",
  "8496": " bitten",
  "8497": " aware",
  "8498": " automobiles",
  "8499": " army",
  "8500": " aprons",
  "8501": " annoying",
  "8502": " anger",
  "8503": " aisle",
  "8504": " Wolf",
  "8505": " Toys",
  "8506": " Tess",
  "8507": " Steven",
  "8508": " Show",
  "8509": " Shark",
  "8510": " Santa",
  "8511": " Ready",
  "8512": " Ryan",
  "8513": " Pick",
  "8514": " March",
  "8515": " Mine",
  "8516": " Magic",
  "8517": " Jody",
  "8518": " Ind",
  "8519": " Helping",
  "8520": " Ginger",
  "8521": " Fly",
  "8522": " Fiona",
  "8523": " Dull",
  "8524": " Crabby",
  "8525": " Bang",
  "8526": " Animal",
  "8527": " Amanda",
  "8528": " Although",
  "8529": "while",
  "8530": "water",
  "8531": "upted",
  "8532": "ugar",
  "8533": "upt",
  "8534": "ntil",
  "8535": "lephant",
  "8536": "issant",
  "8537": "icking",
  "8538": "iens",
  "8539": "hole",
  "8540": "erpiece",
  "8541": "barrow",
  "8542": "asmine",
  "8543": "anwhile",
  "8544": "ambled",
  "8545": "ai",
  "8546": "Someone",
  "8547": "Open",
  "8548": "Mouse",
  "8549": "Magic",
  "8550": "Lou",
  "8551": "Je",
  "8552": "Dr",
  "8553": "Danger",
  "8554": "Claire",
  "8555": "Andrew",
  "8556": " yummiest",
  "8557": " wheelbarrow",
  "8558": " whales",
  "8559": " webs",
  "8560": " uniforms",
  "8561": " type",
  "8562": " tidying",
  "8563": " temperature",
  "8564": " tumbled",
  "8565": " tin",
  "8566": " sternly",
  "8567": " snug",
  "8568": " snuck",
  "8569": " snapping",
  "8570": " skies",
  "8571": " sincere",
  "8572": " scratching",
  "8573": " scares",
  "8574": " scowl",
  "8575": " sandcastles",
  "8576": " reminds",
  "8577": " recorder",
  "8578": " prevented",
  "8579": " posit",
  "8580": " planting",
  "8581": " owns",
  "8582": " oldest",
  "8583": " nations",
  "8584": " nasty",
  "8585": " meowing",
  "8586": " masterpiece",
  "8587": " mirac",
  "8588": " miles",
  "8589": " merry",
  "8590": " joyful",
  "8591": " handing",
  "8592": " groaned",
  "8593": " gasp",
  "8594": " gardens",
  "8595": " goo",
  "8596": " forgives",
  "8597": " floors",
  "8598": " exercises",
  "8599": " doorway",
  "8600": " discou",
  "8601": " definitely",
  "8602": " curl",
  "8603": " croissant",
  "8604": " cottage",
  "8605": " connect",
  "8606": " clue",
  "8607": " coral",
  "8608": " buckles",
  "8609": " buckled",
  "8610": " bowing",
  "8611": " battle",
  "8612": " bathed",
  "8613": " bully",
  "8614": " ass",
  "8615": " aliens",
  "8616": " address",
  "8617": " Willy",
  "8618": " Twisty",
  "8619": " Tooth",
  "8620": " Ot",
  "8621": " Nemo",
  "8622": " Nelly",
  "8623": " Nappy",
  "8624": " Mint",
  "8625": " Loop",
  "8626": " Jason",
  "8627": " Dusty",
  "8628": " Dee",
  "8629": " Bubba",
  "8630": " Ali",
  "8631": "uper",
  "8632": "uel",
  "8633": "reya",
  "8634": "po",
  "8635": "ornado",
  "8636": "meow",
  "8637": "ju",
  "8638": "izzes",
  "8639": "issa",
  "8640": "ipper",
  "8641": "intment",
  "8642": "inct",
  "8643": "imbo",
  "8644": "immy",
  "8645": "ighing",
  "8646": "eyed",
  "8647": "etah",
  "8648": "ergic",
  "8649": "erts",
  "8650": "edic",
  "8651": "ew",
  "8652": "cycles",
  "8653": "bbling",
  "8654": "bage",
  "8655": "ative",
  "8656": "acy",
  "8657": "Zara",
  "8658": "Tree",
  "8659": "Robbie",
  "8660": "Nothing",
  "8661": "NG",
  "8662": "Hannah",
  "8663": "Each",
  "8664": "Arrr",
  "8665": "Adam",
  "8666": ".'\"",
  "8667": " yawning",
  "8668": " windowsill",
  "8669": " whines",
  "8670": " warrior",
  "8671": " traveling",
  "8672": " tips",
  "8673": " tale",
  "8674": " supporting",
  "8675": " styles",
  "8676": " structures",
  "8677": " steer",
  "8678": " squawked",
  "8679": " solving",
  "8680": " sneaks",
  "8681": " shrugs",
  "8682": " scrambled",
  "8683": " scurry",
  "8684": " rout",
  "8685": " quacks",
  "8686": " prick",
  "8687": " plot",
  "8688": " passports",
  "8689": " pipes",
  "8690": " moonlight",
  "8691": " messed",
  "8692": " mesmerized",
  "8693": " meaning",
  "8694": " meadows",
  "8695": " mattresses",
  "8696": " loc",
  "8697": " leapt",
  "8698": " killed",
  "8699": " jars",
  "8700": " inspired",
  "8701": " increasing",
  "8702": " horri",
  "8703": " heaven",
  "8704": " handles",
  "8705": " gest",
  "8706": " finishing",
  "8707": " fights",
  "8708": " fans",
  "8709": " drowned",
  "8710": " dresser",
  "8711": " discouraged",
  "8712": " desserts",
  "8713": " designs",
  "8714": " decoration",
  "8715": " deed",
  "8716": " cutter",
  "8717": " crickets",
  "8718": " cooperate",
  "8719": " condition",
  "8720": " conqu",
  "8721": " commun",
  "8722": " cheerfully",
  "8723": " cheetah",
  "8724": " chill",
  "8725": " causing",
  "8726": " cafe",
  "8727": " burying",
  "8728": " burns",
  "8729": " breaths",
  "8730": " braver",
  "8731": " boil",
  "8732": " bends",
  "8733": " beast",
  "8734": " buddy",
  "8735": " attempt",
  "8736": " answering",
  "8737": " allergic",
  "8738": " affect",
  "8739": " accidents",
  "8740": " Winky",
  "8741": " Through",
  "8742": " Tammy",
  "8743": " Sparkle",
  "8744": " Smo",
  "8745": " Sugar",
  "8746": " Ruff",
  "8747": " Rad",
  "8748": " Prince",
  "8749": " Oh",
  "8750": " Kevin",
  "8751": " Janey",
  "8752": " Janie",
  "8753": " Jon",
  "8754": " Jelly",
  "8755": " Isabella",
  "8756": " Hugo",
  "8757": " Fork",
  "8758": " Chess",
  "8759": " Curious",
  "8760": " Cari",
  "8761": " Bebe",
  "8762": " Ami",
  "8763": " Alarm",
  "8764": " ''",
  "8765": " ouch",
  "8766": " icky",
  "8767": "years",
  "8768": "vas",
  "8769": "val",
  "8770": "ument",
  "8771": "ullaby",
  "8772": "three",
  "8773": "this",
  "8774": "seven",
  "8775": "scotch",
  "8776": "six",
  "8777": "rent",
  "8778": "ots",
  "8779": "oned",
  "8780": "of",
  "8781": "nine",
  "8782": "mers",
  "8783": "jest",
  "8784": "its",
  "8785": "istory",
  "8786": "iment",
  "8787": "icious",
  "8788": "ibbles",
  "8789": "four",
  "8790": "enses",
  "8791": "emies",
  "8792": "eling",
  "8793": "eight",
  "8794": "aty",
  "8795": "asta",
  "8796": "anny",
  "8797": "anced",
  "8798": "abeth",
  "8799": "Sadly",
  "8800": "Karen",
  "8801": "Jeff",
  "8802": "Jessie",
  "8803": "Jacob",
  "8804": "Got",
  "8805": "Fire",
  "8806": "El",
  "8807": "Deal",
  "8808": "Bluey",
  "8809": "Being",
  "8810": "Br",
  "8811": " whoosh",
  "8812": " waters",
  "8813": " wrench",
  "8814": " upside",
  "8815": " unpacking",
  "8816": " unfair",
  "8817": " unfortunately",
  "8818": " topp",
  "8819": " swayed",
  "8820": " stretches",
  "8821": " stun",
  "8822": " spoiling",
  "8823": " sometime",
  "8824": " soot",
  "8825": " soaking",
  "8826": " situations",
  "8827": " sens",
  "8828": " runner",
  "8829": " reappeared",
  "8830": " rebu",
  "8831": " prizes",
  "8832": " pleas",
  "8833": " packages",
  "8834": " opportunity",
  "8835": " occasion",
  "8836": " marshmallows",
  "8837": " marve",
  "8838": " lunchtime",
  "8839": " loyalty",
  "8840": " lightly",
  "8841": " lullaby",
  "8842": " limp",
  "8843": " invitations",
  "8844": " honks",
  "8845": " hesitation",
  "8846": " guardian",
  "8847": " ghosts",
  "8848": " gesture",
  "8849": " gasps",
  "8850": " foreshadow",
  "8851": " farmers",
  "8852": " fries",
  "8853": " faint",
  "8854": " enthusiastically",
  "8855": " enemies",
  "8856": " drift",
  "8857": " details",
  "8858": " dev",
  "8859": " ding",
  "8860": " crackers",
  "8861": " copied",
  "8862": " chews",
  "8863": " caps",
  "8864": " burger",
  "8865": " bluebird",
  "8866": " blush",
  "8867": " apologised",
  "8868": " ages",
  "8869": " aband",
  "8870": " Wonder",
  "8871": " Whistler",
  "8872": " Tia",
  "8873": " Startled",
  "8874": " Spotty",
  "8875": " Smoke",
  "8876": " Shelly",
  "8877": " Symbol",
  "8878": " Super",
  "8879": " Roy",
  "8880": " Rita",
  "8881": " Playing",
  "8882": " Pump",
  "8883": " Pig",
  "8884": " Pen",
  "8885": " Op",
  "8886": " Noah",
  "8887": " Nurse",
  "8888": " Manny",
  "8889": " Lo",
  "8890": " Law",
  "8891": " Kayla",
  "8892": " Giant",
  "8893": " Flo",
  "8894": " Flash",
  "8895": " Fishy",
  "8896": " Fast",
  "8897": " Dogs",
  "8898": " Coal",
  "8899": " Black",
  "8900": " Beaver",
  "8901": " Bro",
  "8902": " Bell",
  "8903": "what",
  "8904": "rib",
  "8905": "rap",
  "8906": "rily",
  "8907": "orse",
  "8908": "nis",
  "8909": "lt",
  "8910": "ivi",
  "8911": "isapp",
  "8912": "inter",
  "8913": "hile",
  "8914": "etal",
  "8915": "erk",
  "8916": "epeat",
  "8917": "entr",
  "8918": "chief",
  "8919": "bank",
  "8920": "acock",
  "8921": "act",
  "8922": "Twinkle",
  "8923": "Slowly",
  "8924": "Sun",
  "8925": "Sit",
  "8926": "Since",
  "8927": "Rufus",
  "8928": "Po",
  "8929": "Ph",
  "8930": "Only",
  "8931": "Meanwhile",
  "8932": "Matt",
  "8933": "Jackie",
  "8934": "Isn",
  "8935": "Im",
  "8936": "Grow",
  "8937": "Excited",
  "8938": "Does",
  "8939": "Caw",
  "8940": "Bubbles",
  "8941": "Anne",
  "8942": ",'",
  "8943": "'?\"",
  "8944": "!'\"",
  "8945": " wobbling",
  "8946": " winks",
  "8947": " undone",
  "8948": " unable",
  "8949": " twirls",
  "8950": " trotted",
  "8951": " toppings",
  "8952": " tongues",
  "8953": " tickles",
  "8954": " thicker",
  "8955": " teapot",
  "8956": " talents",
  "8957": " sweeter",
  "8958": " successfully",
  "8959": " steering",
  "8960": " sprays",
  "8961": " spy",
  "8962": " sparrow",
  "8963": " snort",
  "8964": " shines",
  "8965": " seagulls",
  "8966": " scurrying",
  "8967": " scoops",
  "8968": " royal",
  "8969": " riverbank",
  "8970": " reversing",
  "8971": " returning",
  "8972": " repairing",
  "8973": " rays",
  "8974": " quizzes",
  "8975": " probably",
  "8976": " polar",
  "8977": " poss",
  "8978": " playd",
  "8979": " plugged",
  "8980": " peacock",
  "8981": " parrots",
  "8982": " parted",
  "8983": " passes",
  "8984": " observing",
  "8985": " motorcycles",
  "8986": " maps",
  "8987": " mashed",
  "8988": " lolly",
  "8989": " listener",
  "8990": " lever",
  "8991": " leaking",
  "8992": " knocking",
  "8993": " intently",
  "8994": " hopscotch",
  "8995": " hooves",
  "8996": " honesty",
  "8997": " honking",
  "8998": " hatch",
  "8999": " glared",
  "9000": " fluttering",
  "9001": " flashes",
  "9002": " finishes",
  "9003": " failed",
  "9004": " explode",
  "9005": " expert",
  "9006": " expecting",
  "9007": " disappointment",
  "9008": " dial",
  "9009": " cupc",
  "9010": " coughed",
  "9011": " concentr",
  "9012": " computers",
  "9013": " collap",
  "9014": " clips",
  "9015": " cheating",
  "9016": " chatted",
  "9017": " centre",
  "9018": " camel",
  "9019": " beaks",
  "9020": " backpacks",
  "9021": " awhile",
  "9022": " auntie",
  "9023": " approach",
  "9024": " appreciated",
  "9025": " apology",
  "9026": " afford",
  "9027": " accomplished",
  "9028": " abandoned",
  "9029": " Trevor",
  "9030": " Thunder",
  "9031": " Te",
  "9032": " Seeing",
  "9033": " Ruth",
  "9034": " Rina",
  "9035": " Monster",
  "9036": " Lucas",
  "9037": " Lydia",
  "9038": " Lung",
  "9039": " Joh",
  "9040": " Ice",
  "9041": " Gas",
  "9042": " Emmy",
  "9043": " Daniel",
  "9044": " Despite",
  "9045": " Climb",
  "9046": " Chick",
  "9047": " Cate",
  "9048": " Button",
  "9049": " Bad",
  "9050": " Animals",
  "9051": " Any",
  "9052": " Aaron",
  "9053": "zip",
  "9054": "ulf",
  "9055": "uity",
  "9056": "uum",
  "9057": "tock",
  "9058": "stered",
  "9059": "storm",
  "9060": "stand",
  "9061": "smelling",
  "9062": "rum",
  "9063": "rant",
  "9064": "pan",
  "9065": "ooks",
  "9066": "ooke",
  "9067": "mbers",
  "9068": "ms",
  "9069": "lend",
  "9070": "itz",
  "9071": "ironment",
  "9072": "iky",
  "9073": "iggle",
  "9074": "ici",
  "9075": "ibly",
  "9076": "heese",
  "9077": "han",
  "9078": "hanie",
  "9079": "guess",
  "9080": "good",
  "9081": "ephanie",
  "9082": "endant",
  "9083": "ebecca",
  "9084": "cutter",
  "9085": "cloth",
  "9086": "cky",
  "9087": "byes",
  "9088": "bee",
  "9089": "aping",
  "9090": "antrum",
  "9091": "ani",
  "9092": "ample",
  "9093": "agine",
  "9094": "acles",
  "9095": "Zigzag",
  "9096": "Whenever",
  "9097": "Terry",
  "9098": "Shrink",
  "9099": "Show",
  "9100": "Should",
  "9101": "Sophia",
  "9102": "Sc",
  "9103": "Pretty",
  "9104": "More",
  "9105": "Michael",
  "9106": "Johny",
  "9107": "Jenna",
  "9108": "Frog",
  "9109": "Eat",
  "9110": "Climb",
  "9111": "Child",
  "9112": "Catch",
  "9113": "Bounce",
  "9114": "Blink",
  "9115": "Ahoy",
  "9116": "Ally",
  "9117": "\"!",
  "9118": " zips",
  "9119": " woodcutter",
  "9120": " wiggling",
  "9121": " weighing",
  "9122": " vacuum",
  "9123": " traps",
  "9124": " troll",
  "9125": " trigger",
  "9126": " toolbox",
  "9127": " threads",
  "9128": " tempted",
  "9129": " tablecloth",
  "9130": " tantrum",
  "9131": " surfed",
  "9132": " stomachs",
  "9133": " stains",
  "9134": " stall",
  "9135": " sprinkle",
  "9136": " spices",
  "9137": " spiky",
  "9138": " snowflake",
  "9139": " smelt",
  "9140": " shave",
  "9141": " seashe",
  "9142": " scrub",
  "9143": " scent",
  "9144": " robin",
  "9145": " rewarding",
  "9146": " reappear",
  "9147": " realizes",
  "9148": " reun",
  "9149": " report",
  "9150": " ratt",
  "9151": " providing",
  "9152": " prank",
  "9153": " pokes",
  "9154": " pilots",
  "9155": " pedaling",
  "9156": " offers",
  "9157": " nights",
  "9158": " neighbours",
  "9159": " musicians",
  "9160": " munching",
  "9161": " momma",
  "9162": " messier",
  "9163": " messages",
  "9164": " members",
  "9165": " mats",
  "9166": " mac",
  "9167": " leans",
  "9168": " keyhole",
  "9169": " jud",
  "9170": " jugg",
  "9171": " intelligence",
  "9172": " instinct",
  "9173": " improving",
  "9174": " hover",
  "9175": " hoses",
  "9176": " hissing",
  "9177": " headache",
  "9178": " hangers",
  "9179": " haven",
  "9180": " halves",
  "9181": " goodbyes",
  "9182": " garbage",
  "9183": " groom",
  "9184": " forts",
  "9185": " folds",
  "9186": " flock",
  "9187": " facing",
  "9188": " foggy",
  "9189": " exch",
  "9190": " example",
  "9191": " environment",
  "9192": " dodging",
  "9193": " discussing",
  "9194": " disappearing",
  "9195": " dou",
  "9196": " dips",
  "9197": " dice",
  "9198": " dep",
  "9199": " dedic",
  "9200": " croaked",
  "9201": " conquered",
  "9202": " connected",
  "9203": " concer",
  "9204": " communicate",
  "9205": " clut",
  "9206": " clerk",
  "9207": " checkout",
  "9208": " cheaper",
  "9209": " bumping",
  "9210": " builders",
  "9211": " bounces",
  "9212": " birdhouse",
  "9213": " beaming",
  "9214": " baa",
  "9215": " argument",
  "9216": " aeroplanes",
  "9217": " Zane",
  "9218": " Yawn",
  "9219": " Vivi",
  "9220": " Use",
  "9221": " Until",
  "9222": " Tornado",
  "9223": " Stretch",
  "9224": " Sit",
  "9225": " Silly",
  "9226": " Settle",
  "9227": " Se",
  "9228": " Rick",
  "9229": " Pops",
  "9230": " Pl",
  "9231": " Owly",
  "9232": " Mop",
  "9233": " Mindy",
  "9234": " Looking",
  "9235": " Liza",
  "9236": " Li",
  "9237": " Josie",
  "9238": " Jumpy",
  "9239": " Jet",
  "9240": " Hugs",
  "9241": " Graceful",
  "9242": " Girl",
  "9243": " Elizabeth",
  "9244": " Eddie",
  "9245": " Dilly",
  "9246": " Del",
  "9247": " Chuck",
  "9248": " Cats",
  "9249": " Brad",
  "9250": " Barry",
  "9251": "wis",
  "9252": "vi",
  "9253": "ths",
  "9254": "sn",
  "9255": "she",
  "9256": "roll",
  "9257": "rie",
  "9258": "racted",
  "9259": "ruct",
  "9260": "osite",
  "9261": "orsie",
  "9262": "oni",
  "9263": "off",
  "9264": "net",
  "9265": "lo",
  "9266": "iter",
  "9267": "isc",
  "9268": "insed",
  "9269": "ingly",
  "9270": "idi",
  "9271": "icles",
  "9272": "helle",
  "9273": "esse",
  "9274": "des",
  "9275": "boat",
  "9276": "asers",
  "9277": "arla",
  "9278": "apple",
  "9279": "aptain",
  "9280": "andra",
  "9281": "aning",
  "9282": "adie",
  "9283": "ada",
  "9284": "Velvet",
  "9285": "Tilly",
  "9286": "Sm",
  "9287": "Pip",
  "9288": "Never",
  "9289": "Linda",
  "9290": "Julie",
  "9291": "Fiona",
  "9292": "Doctor",
  "9293": "Daniel",
  "9294": "Del",
  "9295": "Ant",
  "9296": "?”.",
  "9297": " winds",
  "9298": " whimpered",
  "9299": " whined",
  "9300": " vests",
  "9301": " unwrapped",
  "9302": " unwrap",
  "9303": " underwater",
  "9304": " uncovered",
  "9305": " trusts",
  "9306": " thump",
  "9307": " testing",
  "9308": " teaspoons",
  "9309": " tugging",
  "9310": " swirls",
  "9311": " surv",
  "9312": " striking",
  "9313": " squirted",
  "9314": " sprout",
  "9315": " spaces",
  "9316": " spades",
  "9317": " slapping",
  "9318": " shyly",
  "9319": " seriously",
  "9320": " salads",
  "9321": " rocky",
  "9322": " rips",
  "9323": " ribbit",
  "9324": " repeats",
  "9325": " rags",
  "9326": " rinsed",
  "9327": " quacking",
  "9328": " prickly",
  "9329": " possibil",
  "9330": " playdate",
  "9331": " piglet",
  "9332": " petting",
  "9333": " pepperoni",
  "9334": " painful",
  "9335": " outfits",
  "9336": " opposite",
  "9337": " opinions",
  "9338": " newspapers",
  "9339": " mustered",
  "9340": " miracle",
  "9341": " marveled",
  "9342": " mailing",
  "9343": " magazines",
  "9344": " munched",
  "9345": " lizards",
  "9346": " inter",
  "9347": " hunger",
  "9348": " hisses",
  "9349": " heights",
  "9350": " guitars",
  "9351": " grain",
  "9352": " goodness",
  "9353": " glittered",
  "9354": " freezing",
  "9355": " fishermen",
  "9356": " fetched",
  "9357": " fail",
  "9358": " enemy",
  "9359": " dustpan",
  "9360": " dripped",
  "9361": " dressing",
  "9362": " disagreeing",
  "9363": " diamonds",
  "9364": " deserves",
  "9365": " cupboards",
  "9366": " creak",
  "9367": " crops",
  "9368": " costs",
  "9369": " closing",
  "9370": " classmates",
  "9371": " circ",
  "9372": " capes",
  "9373": " canvas",
  "9374": " buys",
  "9375": " bushy",
  "9376": " brightest",
  "9377": " brightened",
  "9378": " braid",
  "9379": " bond",
  "9380": " bending",
  "9381": " bellies",
  "9382": " barrels",
  "9383": " bas",
  "9384": " awful",
  "9385": " artwork",
  "9386": " arranged",
  "9387": " arrest",
  "9388": " alligators",
  "9389": " afar",
  "9390": " acts",
  "9391": " Whale",
  "9392": " Was",
  "9393": " Vicky",
  "9394": " Tuesdays",
  "9395": " Truckie",
  "9396": " Tip",
  "9397": " Swimmy",
  "9398": " Sundays",
  "9399": " Smokey",
  "9400": " Rude",
  "9401": " Quickly",
  "9402": " Price",
  "9403": " Pretty",
  "9404": " Otto",
  "9405": " Open",
  "9406": " Mina",
  "9407": " Life",
  "9408": " Land",
  "9409": " Joanne",
  "9410": " Inky",
  "9411": " Helen",
  "9412": " Hurry",
  "9413": " Gemma",
  "9414": " Flicker",
  "9415": " Flap",
  "9416": " Freya",
  "9417": " Eric",
  "9418": " Elephant",
  "9419": " Dotty",
  "9420": " Din",
  "9421": " Club",
  "9422": " Charlotte",
  "9423": " Cake",
  "9424": " Butter",
  "9425": " Bess",
  "9426": " Believe",
  "9427": "zzle",
  "9428": "vince",
  "9429": "ustache",
  "9430": "urrender",
  "9431": "stantly",
  "9432": "snap",
  "9433": "sess",
  "9434": "ssess",
  "9435": "sers",
  "9436": "rope",
  "9437": "phew",
  "9438": "ously",
  "9439": "osa",
  "9440": "ooly",
  "9441": "mill",
  "9442": "mered",
  "9443": "lenda",
  "9444": "ldy",
  "9445": "lings",
  "9446": "keepers",
  "9447": "iscuit",
  "9448": "isappear",
  "9449": "isbee",
  "9450": "irley",
  "9451": "iring",
  "9452": "iri",
  "9453": "indness",
  "9454": "idey",
  "9455": "icers",
  "9456": "gra",
  "9457": "etch",
  "9458": "elope",
  "9459": "ctric",
  "9460": "creams",
  "9461": "cessary",
  "9462": "cie",
  "9463": "boos",
  "9464": "aterina",
  "9465": "ats",
  "9466": "artin",
  "9467": "amma",
  "9468": "Still",
  "9469": "Something",
  "9470": "Rabbit",
  "9471": "Owl",
  "9472": "Maddie",
  "9473": "Mon",
  "9474": "Mittens",
  "9475": "Milo",
  "9476": "Many",
  "9477": "Luke",
  "9478": "Imagine",
  "9479": "Hope",
  "9480": "HE",
  "9481": "Gina",
  "9482": "Dare",
  "9483": "Choo",
  "9484": "Ami",
  "9485": " zookeepers",
  "9486": " wolves",
  "9487": " woken",
  "9488": " wiser",
  "9489": " whipped",
  "9490": " waded",
  "9491": " visitor",
  "9492": " valuing",
  "9493": " unfold",
  "9494": " types",
  "9495": " trans",
  "9496": " tempting",
  "9497": " taps",
  "9498": " tanks",
  "9499": " swapped",
  "9500": " stomping",
  "9501": " stares",
  "9502": " stacks",
  "9503": " squished",
  "9504": " slithered",
  "9505": " singers",
  "9506": " shares",
  "9507": " shaky",
  "9508": " sensation",
  "9509": " sends",
  "9510": " seashells",
  "9511": " sailboat",
  "9512": " rotted",
  "9513": " rebuild",
  "9514": " reassured",
  "9515": " rin",
  "9516": " purses",
  "9517": " property",
  "9518": " process",
  "9519": " pounding",
  "9520": " possibilities",
  "9521": " positive",
  "9522": " possess",
  "9523": " peels",
  "9524": " peeks",
  "9525": " particularly",
  "9526": " officers",
  "9527": " notices",
  "9528": " nibbled",
  "9529": " nephew",
  "9530": " necks",
  "9531": " missiles",
  "9532": " meets",
  "9533": " massages",
  "9534": " majest",
  "9535": " mower",
  "9536": " mend",
  "9537": " lowers",
  "9538": " local",
  "9539": " keen",
  "9540": " joyfully",
  "9541": " instantly",
  "9542": " invent",
  "9543": " imaginations",
  "9544": " host",
  "9545": " helicopters",
  "9546": " hob",
  "9547": " grumbled",
  "9548": " generosity",
  "9549": " funniest",
  "9550": " furious",
  "9551": " fluff",
  "9552": " fascinating",
  "9553": " fade",
  "9554": " exams",
  "9555": " escaping",
  "9556": " erasers",
  "9557": " emerged",
  "9558": " electric",
  "9559": " ducklings",
  "9560": " dryer",
  "9561": " drip",
  "9562": " doorstep",
  "9563": " differences",
  "9564": " deeply",
  "9565": " dedication",
  "9566": " damaged",
  "9567": " dumb",
  "9568": " crocodiles",
  "9569": " crawls",
  "9570": " contained",
  "9571": " concert",
  "9572": " convince",
  "9573": " competing",
  "9574": " compete",
  "9575": " collapsed",
  "9576": " cleans",
  "9577": " chicks",
  "9578": " checking",
  "9579": " challenged",
  "9580": " cells",
  "9581": " caution",
  "9582": " caw",
  "9583": " cages",
  "9584": " bud",
  "9585": " bold",
  "9586": " biscuit",
  "9587": " applauding",
  "9588": " angrier",
  "9589": " Yummy",
  "9590": " Youth",
  "9591": " West",
  "9592": " Too",
  "9593": " Tears",
  "9594": " Sweet",
  "9595": " Steak",
  "9596": " Spinny",
  "9597": " Sink",
  "9598": " School",
  "9599": " Pumpkin",
  "9600": " Poison",
  "9601": " Phil",
  "9602": " Peggy",
  "9603": " Promise",
  "9604": " Otherwise",
  "9605": " Number",
  "9606": " Nature",
  "9607": " Mustache",
  "9608": " Michael",
  "9609": " Math",
  "9610": " Mara",
  "9611": " Mag",
  "9612": " Les",
  "9613": " Justin",
  "9614": " Jasmine",
  "9615": " Im",
  "9616": " Horsie",
  "9617": " Hat",
  "9618": " Grand",
  "9619": " Friendship",
  "9620": " Freddie",
  "9621": " Fruity",
  "9622": " Fun",
  "9623": " Fle",
  "9624": " Dinah",
  "9625": " Drag",
  "9626": " Cocoa",
  "9627": " Brooke",
  "9628": " Birds",
  "9629": " Auntie",
  "9630": " Annabel",
  "9631": " 12",
  "9632": " ic",
  "9633": "yla",
  "9634": "upid",
  "9635": "unes",
  "9636": "umbly",
  "9637": "udre",
  "9638": "udrey",
  "9639": "sorry",
  "9640": "rowave",
  "9641": "remy",
  "9642": "reement",
  "9643": "ror",
  "9644": "pop",
  "9645": "oscope",
  "9646": "orth",
  "9647": "ordan",
  "9648": "ocular",
  "9649": "oss",
  "9650": "ngest",
  "9651": "munk",
  "9652": "lescope",
  "9653": "lest",
  "9654": "leo",
  "9655": "line",
  "9656": "ircle",
  "9657": "iffy",
  "9658": "ifer",
  "9659": "idy",
  "9660": "idence",
  "9661": "iciest",
  "9662": "hings",
  "9663": "hadow",
  "9664": "guise",
  "9665": "getic",
  "9666": "gar",
  "9667": "faction",
  "9668": "flowers",
  "9669": "ethoscope",
  "9670": "ential",
  "9671": "eze",
  "9672": "dmother",
  "9673": "ders",
  "9674": "colored",
  "9675": "clock",
  "9676": "azy",
  "9677": "atted",
  "9678": "atic",
  "9679": "ashes",
  "9680": "arted",
  "9681": "arold",
  "9682": "arissa",
  "9683": "anky",
  "9684": "ami",
  "9685": "alter",
  "9686": "acing",
  "9687": "Zoe",
  "9688": "Want",
  "9689": "Three",
  "9690": "Tuna",
  "9691": "Toto",
  "9692": "Tell",
  "9693": "Suzy",
  "9694": "Steve",
  "9695": "Snap",
  "9696": "Share",
  "9697": "Ruth",
  "9698": "Ring",
  "9699": "Rain",
  "9700": "Mumma",
  "9701": "Marie",
  "9702": "Liza",
  "9703": "Jonny",
  "9704": "Ice",
  "9705": "Gr",
  "9706": "Foxy",
  "9707": "Freeze",
  "9708": "Curious",
  "9709": "Bun",
  "9710": "Boom",
  "9711": "Baa",
  "9712": "Any",
  "9713": " youngest",
  "9714": " writer",
  "9715": " worst",
  "9716": " windmill",
  "9717": " wildflowers",
  "9718": " whiskers",
  "9719": " whirl",
  "9720": " weaker",
  "9721": " washes",
  "9722": " vinegar",
  "9723": " vegg",
  "9724": " unload",
  "9725": " unst",
  "9726": " trays",
  "9727": " transform",
  "9728": " trim",
  "9729": " tosses",
  "9730": " timid",
  "9731": " tightrope",
  "9732": " tickling",
  "9733": " telescope",
  "9734": " survive",
  "9735": " surely",
  "9736": " suggests",
  "9737": " stores",
  "9738": " stethoscope",
  "9739": " squawk",
  "9740": " springing",
  "9741": " spare",
  "9742": " softened",
  "9743": " sobbing",
  "9744": " snuggle",
  "9745": " shallow",
  "9746": " scowled",
  "9747": " sawed",
  "9748": " satisfaction",
  "9749": " sacks",
  "9750": " sus",
  "9751": " rider",
  "9752": " realizing",
  "9753": " realise",
  "9754": " razors",
  "9755": " rink",
  "9756": " praise",
  "9757": " prog",
  "9758": " postc",
  "9759": " popping",
  "9760": " pleasant",
  "9761": " pineapple",
  "9762": " peacefulness",
  "9763": " parks",
  "9764": " panicking",
  "9765": " palms",
  "9766": " owls",
  "9767": " overhead",
  "9768": " origami",
  "9769": " obediently",
  "9770": " mindful",
  "9771": " microwave",
  "9772": " luckiest",
  "9773": " licenses",
  "9774": " leaped",
  "9775": " ladybugs",
  "9776": " lump",
  "9777": " kindest",
  "9778": " kangaroos",
  "9779": " jumper",
  "9780": " journeys",
  "9781": " interr",
  "9782": " hummed",
  "9783": " hatched",
  "9784": " harmony",
  "9785": " hangs",
  "9786": " halfway",
  "9787": " habit",
  "9788": " goodies",
  "9789": " godmother",
  "9790": " glittery",
  "9791": " frisbee",
  "9792": " fourth",
  "9793": " formed",
  "9794": " form",
  "9795": " fond",
  "9796": " facts",
  "9797": " fulf",
  "9798": " eyeshadow",
  "9799": " explaining",
  "9800": " erupt",
  "9801": " emb",
  "9802": " eleven",
  "9803": " elders",
  "9804": " disagreement",
  "9805": " disguise",
  "9806": " detective",
  "9807": " desperate",
  "9808": " desks",
  "9809": " critter",
  "9810": " coolest",
  "9811": " concerned",
  "9812": " convers",
  "9813": " compared",
  "9814": " collars",
  "9815": " caves",
  "9816": " calmer",
  "9817": " cuc",
  "9818": " bulbs",
  "9819": " bubbling",
  "9820": " bands",
  "9821": " attaching",
  "9822": " attacked",
  "9823": " applause",
  "9824": " announced",
  "9825": " amused",
  "9826": " actors",
  "9827": " access",
  "9828": " abil",
  "9829": " aback",
  "9830": " White",
  "9831": " Working",
  "9832": " Wiggles",
  "9833": " Tomato",
  "9834": " Teaspoon",
  "9835": " Tell",
  "9836": " Stephanie",
  "9837": " Spicy",
  "9838": " Slinky",
  "9839": " Shirley",
  "9840": " Skeleton",
  "9841": " Sid",
  "9842": " Ricky",
  "9843": " Read",
  "9844": " Ralph",
  "9845": " Pot",
  "9846": " Pasta",
  "9847": " Paint",
  "9848": " Moony",
  "9849": " Matilda",
  "9850": " Magnet",
  "9851": " Marian",
  "9852": " Mamma",
  "9853": " Lollie",
  "9854": " Libby",
  "9855": " Layla",
  "9856": " Kindness",
  "9857": " Jetty",
  "9858": " Jemma",
  "9859": " Jellie",
  "9860": " Hello",
  "9861": " Hal",
  "9862": " Gilly",
  "9863": " Gill",
  "9864": " France",
  "9865": " Flossy",
  "9866": " Flop",
  "9867": " Funny",
  "9868": " Fix",
  "9869": " Find",
  "9870": " Dora",
  "9871": " Cleaning",
  "9872": " Clarissa",
  "9873": " Cross",
  "9874": " Cici",
  "9875": " Cars",
  "9876": " Care",
  "9877": " Brush",
  "9878": " Bobble",
  "9879": " Boxy",
  "9880": " Bun",
  "9881": " Bert",
  "9882": " Ar",
  "9883": "zzly",
  "9884": "yle",
  "9885": "welcome",
  "9886": "war",
  "9887": "venture",
  "9888": "utely",
  "9889": "ushroom",
  "9890": "usic",
  "9891": "uses",
  "9892": "ubb",
  "9893": "teen",
  "9894": "spell",
  "9895": "solutely",
  "9896": "ruction",
  "9897": "roy",
  "9898": "rizzle",
  "9899": "rob",
  "9900": "ris",
  "9901": "queeze",
  "9902": "queak",
  "9903": "poison",
  "9904": "peed",
  "9905": "poke",
  "9906": "oured",
  "9907": "ouqu",
  "9908": "osaurus",
  "9909": "oculars",
  "9910": "oot",
  "9911": "oard",
  "9912": "lderly",
  "9913": "lor",
  "9914": "lish",
  "9915": "just",
  "9916": "izer",
  "9917": "ilah",
  "9918": "ifully",
  "9919": "ibility",
  "9920": "heel",
  "9921": "grandma",
  "9922": "ggles",
  "9923": "free",
  "9924": "everse",
  "9925": "ergus",
  "9926": "erms",
  "9927": "ercy",
  "9928": "elle",
  "9929": "elve",
  "9930": "even",
  "9931": "dventure",
  "9932": "bert",
  "9933": "bang",
  "9934": "asured",
  "9935": "aroni",
  "9936": "aps",
  "9937": "andle",
  "9938": "andel",
  "9939": "alia",
  "9940": "abelle",
  "9941": "afe",
  "9942": "Whist",
  "9943": "Startled",
  "9944": "Snowy",
  "9945": "Squeaky",
  "9946": "Squ",
  "9947": "Say",
  "9948": "Robby",
  "9949": "Playing",
  "9950": "Papa",
  "9951": "Over",
  "9952": "Maddy",
  "9953": "Mix",
  "9954": "Lizzy",
  "9955": "King",
  "9956": "Judy",
  "9957": "Johnnie",
  "9958": "Janie",
  "9959": "Jessica",
  "9960": "Greg",
  "9961": "Fox",
  "9962": "Fuzzy",
  "9963": "Everything",
  "9964": "Enjoy",
  "9965": "Davey",
  "9966": "Dino",
  "9967": "Chicky",
  "9968": "Connor",
  "9969": "Ash",
  "9970": "Amber",
  "9971": "Although",
  "9972": "Ava",
  "9973": ":\"",
  "9974": " wrapper",
  "9975": " warmed",
  "9976": " wig",
  "9977": " veggies",
  "9978": " twitched",
  "9979": " twelve",
  "9980": " treasured",
  "9981": " thunderstorm",
  "9982": " thumbs",
  "9983": " temptation",
  "9984": " surrounding",
  "9985": " striped",
  "9986": " speaks",
  "9987": " snorts",
  "9988": " sleepover",
  "9989": " skirts",
  "9990": " shattered",
  "9991": " shaken",
  "9992": " scene",
  "9993": " scre",
  "9994": " sav",
  "9995": " suck",
  "9996": " site",
  "9997": " ruby",
  "9998": " robe",
  "9999": " rinse"
}